, 166068090
. 123352188
và 42901544
của 42044271
là 31083880
các 29292089
có 28137678
được 26812961
trong 25222234
cho 23912570
đã 22964542
với 21342218
một 19500650
không 19113772
người 18350991
) 16567451
( 16544849
những 16432763
" 14930822
này 15030862
để 14910052
ở 13819705
khi 13526407
: 12896508
về 13078338
năm 12925937
đến 12885810
- 12320230
cũng 11525875
vào 11531021
trên 11461148
tại 11241966
nhiều 11142794
đó 10906870
sẽ 10938702
từ 10985937
ra 10848091
phải 8929243
như 8380829
ngày 8278339
lại 8203704
bị 7959460
ông 7624179
làm 7640260
hơn 7108604
việc 6926599
còn 6746990
nhưng 6650886
đang 6608359
sau 6474383
thì 6386812
biết 6331690
Việt_Nam 5938099
đi 6002328
nước 6062315
rất 5850463
mới 5822409
sự 5919769
có_thể 5525997
theo 5546991
mà 5456203
; 5213200
chỉ 5421525
nhất 5368612
mình 5285462
nhà 5226905
tôi 4923451
trước 4866552
lên 4822805
con 4763967
vẫn 4736090
tới 4716865
2 4698713
nên 4673322
tháng 4643078
Theo 4578502
đồng 4676385
cùng 4528962
hai 4395003
anh 4370257
cao 4334923
khác 4260674
họ 4143014
rằng 4143975
bạn 4148139
qua 4131039
vì 4020609
do 3955598
Trong 3887830
Mỹ 3855943
cả 3855792
/ 3673467
nói 3754524
đây 3690895
tỉnh 3762302
1 3659186
số 3823652
lần 3589306
chưa 3581497
lớn 3558112
' 3391315
xe 3467579
cô 3397325
3 3405152
thấy 3347796
đường 3219668
cuộc 3205789
đưa 3135634
thực_hiện 3045062
triệu 3126893
? 3017423
cần 3114299
tổ_chức 2997293
sử_dụng 2981764
hay 3022264
hàng 3133107
Hà_Nội 2900226
bằng 2976287
khiến 2937146
tiền 2959542
gần 2905836
Bộ 2847595
tuổi 2777242
đầu 2988540
tăng 2831829
thứ 2720064
thời_gian 2617875
đều 2674509
hoạt_động 2610708
giá 2786748
phát_triển 2565261
... 2544790
nay 2599587
khoảng 2581516
nhau 2515421
cách 2594342
gây 2534929
xây_dựng 2459771
nào 2513891
thêm 2474597
Ảnh 2418104
bên 2458033
Các 2438092
giữa 2428211
gì 2391577
huyện 2419387
từng 2406668
hoặc 2385183
chiếc 2361026
Tuy_nhiên 2317955
nhận 2489137
bà 2360407
mang 2360710
Anh 2365134
đầu_tư 2299284
chính 2511178
khu_vực 2234360
gia_đình 2224882
Sau 2248414
4 2202522
vừa 2206599
Trung_Quốc 2133194
loại 2185547
tốt 2208685
Ông 2173454
dự_án 2123968
bán 2192956
giúp 2186436
một_số 2087404
5 2127374
Nga 2089348
dùng 2087794
xã 2186156
trẻ 2085439
vụ 2208825
đất 2098014
người_dân 1998792
cấp 2145738
rồi 2023298
nếu 2030161
điều 2172579
mức 2080657
tỷ 2084973
thuộc 2028585
mua 2037900
nơi 2028525
đối_với 1952875
đầu_tiên 1949386
điểm 2086325
em 1994852
tiếp_tục 1929229
thông_tin 1914136
trận 1960624
giảm 2008352
thế_giới 1898046
tạo 1988751
tin 2007765
thi 1981499
muốn 1906970
ăn 1914516
quá 1922425
mỗi 1876312
tham_gia 1828625
mọi 1865638
đạt 1897149
quy_định 1794811
10 1834680
doanh_nghiệp 1787754
trường 1980791
chị 1817095
thành_phố 1763364
bộ 1892738
phía 1790689
Những 1765453
Tôi 1758432
lúc 1730333
vấn_đề 1689234
tên 1720700
học 1888283
bởi 1716377
cái 1696807
thị_trường 1667019
đội 1744302
ngoài 1702255
USD 1657979
diễn 1726648
phần 1725197
nó 1637191
giờ 1657255
kinh_tế 1599430
đặc_biệt 1599050
sống 1667851
luôn 1629355
ta 1630914
gái 1611123
nhỏ 1613029
tìm 1626817
ấy 1598218
Một 1605775
gặp 1607874
vốn 1605057
6 1620833
so 1609007
công_tác 1528796
giải 1660798
ngay 1563447
Chủ_tịch 1502367
Khi 1534301
hệ_thống 1485575
TP 1551657
xảy 1525838
ngành 1538381
sản_xuất 1477091
quốc_gia 1457005
đẹp 1495708
khả_năng 1454036
quản_lý 1442205
quyết_định 1440930
biển 1483650
công_ty 1438377
UBND 1481320
sản_phẩm 1424598
phim 1457606
xã_hội 1420538
Phó 1467523
mẹ 1462566
chương_trình 1416991
cơ_quan 1412963
nhằm 1452065
lấy 1436843
mất 1438836
vùng 1451190
nhóm 1439563
ai 1417443
lời 1420333
không_thể 1374452
dưới 1398269
khá 1398640
Đây 1396185
chúng_tôi 1357837
ảnh 1461904
yêu_cầu 1353655
chủ 1467841
đúng 1382879
chia_sẻ 1330483
mạng 1383860
Công_ty 1321704
hỗ_trợ 1318598
phòng 1411264
Nhưng 1326362
tính 1392803
sang 1344322
địa_phương 1303016
rõ 1347394
sáng 1356841
trở_thành 1295145
giữ 1350557
bóng 1336384
thành 1578303
mùa 1321199
đơn_vị 1286335
xem 1323738
tay 1326156
xuống 1301869
bé 1299556
nguồn 1320931
xử_lý 1266732
thường 1341939
đủ 1307579
Nếu 1286470
liên_quan 1256690
Chính_phủ 1255649
khu 1365228
7 1272060
quận 1274589
Ngày 1276100
đặt 1289290
Với 1275499
làm_việc 1236477
vòng 1255060
Thủ_tướng 1215962
loài 1215618
bệnh 1362998
chồng 1229275
gọi 1224424
kinh_doanh 1187791
khó_khăn 1187602
quan_trọng 1179887
quốc_tế 1176435
phát_hiện 1172033
TP. 1170666
chống 1234646
khách 1255982
kể 1201058
bỏ 1203168
nằm 1181211
lực_lượng 1156426
cơ_sở 1147062
kiểm_tra 1146465
ít 1178527
chuyện 1176705
Người 1170292
ba 1162897
Trước 1173475
nữa 1157104
đấu 1194962
Việt 1319500
hết 1173024
cuối 1169938
khỏi 1147335
vàng 1148539
tiếng 1148797
tàu 1137359
Đức 1129321
8 1116964
khó 1170488
bảo_vệ 1088249
triển_khai 1085732
cạnh 1122958
dài 1125782
nhìn 1099578
dành 1100375
chết 1082834
Công_an 1064761
cây 1099630
thu 1169088
ảnh_hưởng 1061618
hiệu_quả 1056664
vợ 1080910
mặt 1139760
khẳng_định 1048016
đánh_giá 1047754
dẫn 1112473
điều_tra 1046060
độ 1157351
chơi 1076549
hiện 1373306
! 1044126
Tại 1078593
HCM 1047648
mạnh 1129532
tự 1134546
tuần 1072905
bài 1077997
du_lịch 1038159
hoa 1056578
chất_lượng 1029836
buổi 1042385
tất_cả 1017876
lãnh_đạo 1015635
kết_quả 1013538
xuất_hiện 1011502
đêm 1033100
chạy 1036139
thời_điểm 1009949
dịch_vụ 1009063
học_sinh 1008873
nữ 1060402
an_toàn 1005830
bắt_đầu 1000666
Từ 1029689
chiều 1031126
Sở 1030694
Tổng_thống 991784
đảm_bảo 990723
gửi 1014831
nghiên_cứu 985366
thay_đổi 984955
màu 1016561
yêu 1075468
đứng 1010922
tình_trạng 978418
cán_bộ 973528
chung 1013238
sinh 1147301
phụ_nữ 955520
trường_hợp 955492
kế_hoạch 954315
điều_kiện 950350
sao 989353
quan_hệ 948770
hình_ảnh 948765
9 964364
môi_trường 941870
2017 944959
đối_tượng 940653
chuyển 1018175
20 955389
Điều 963946
thành_công 932313
Năm 946261
cá_nhân 925980
phút 947768
chọn 968162
hiện_nay 916806
cầu_thủ 916388
Ban 978539
báo 1030736
vị_trí 906450
trai 932978
chân 934035
12 926271
tấn_công 904394
hỏi 927192
giao_thông 896883
Nhiều 915100
Pháp 908014
máy_bay 893390
dân 1084688
Không 918363
tuyến 931680
hướng 949441
HLV 905813
khoa_học 887949
& 886871
lớp 915469
miền 898241
công_nghệ 877676
điện 952425
đáng 913772
đôi 897884
riêng 901215
giá_trị 866778
viết 879367
dù 905713
cung_cấp 863799
nâng 907333
sớm 883717
văn_hoá 858544
quá_trình 852034
thấp 879080
giống 870138
trách_nhiệm 849803
giải_quyết 847339
khách_hàng 845881
gồm 878065
đánh 905516
Nhật_Bản 843202
da 857028
Để 858211
2016 838734
nhanh 874857
tiến_hành 831326
nghĩ 849321
vi_phạm 827004
tập_trung 825079
sông 847335
cuộc_sống 823764
Ngoài_ra 823066
quyền 894029
đá 857778
chính_thức 819714
thành_viên 818443
thiết_kế 816528
thiếu 843968
bước 840615
hoàn_toàn 809116
2018 814131
chính_sách 807865
Có 838615
30 823314
trả 843337
hộ 869445
chúng_ta 805034
đồng_thời 804581
bàn 882172
vượt 832829
quan_tâm 796350
phối_hợp 794553
nội_dung 793873
lao_động 793354
vài 815985
nước_ngoài 789637
sân 840131
lĩnh_vực 784842
Việc 808947
thật 806698
cơ_hội 782384
địa_bàn 779945
nghe 796361
hợp_tác 778712
lượng 911300
món 787522
nhiệm_vụ 772263
câu 801324
thuốc 793459
công_việc 771637
công_trình 770680
dòng 785769
phục_vụ 760136
nặng 779947
báo_cáo 759786
Hàn_Quốc 758671
bắt 821701
hãng 768537
thể_hiện 753204
tài_sản 753156
khán_giả 751339
nam 773360
thích 785709
Nhà_nước 748313
đầy 780124
chuẩn_bị 744884
đề_nghị 744784
mở 794359
phù_hợp 744554
chuyến 760947
chịu 766794
mục_tiêu 738140
đông 759437
đại_diện 737858
nổi_tiếng 737215
“ 737119
phường 754408
máy 802249
Bên 759026
kỳ 836428
giành 747412
chỉ_đạo 732055
hiểu 753519
” 726964
án 852186
càng 759180
chất 812669
nền 766411
cá 774173
thế 857490
ý_kiến 719254
chúng 784038
thực_tế 714233
giao 809329
cháu 723481
công_bố 711870
hát 724668
thuế 730715
mối 730210
đóng 750580
Và 719094
chuyên_gia 705841
trực_tiếp 703310
pháp_luật 702604
mẫu 734777
lễ 716839
hợp_đồng 701340
quay 719955
hành_vi 699072
Nam 895133
trung_tâm 698395
dễ 726622
bất_ngờ 697212
sức_khoẻ 696907
nhờ 714767
như_vậy 695608
chứ 705863
Syria 696865
m 697809
xác_định 694331
điện_thoại 694297
đâu 702726
nhân_dân 691632
xa 712161
lòng 713803
giáo_dục 687659
trở_lại 687593
Đến 703508
giai_đoạn 684777
ngân_hàng 683017
xin 703112
tránh 699954
15 697076
bảng 690908
Quốc_hội 677673
thắng 712800
tăng_cường 674663
bản 769178
Cô 687435
bay 730183
Đảng 708098
Trường 697949
Đà_Nẵng 666427
11 676533
thương_mại 662605
vị 761891
thiết_bị 660332
Bộ_trưởng 659132
an_ninh 658927
cầu 785339
Còn 670398
làng 671776
cũ 665830
nhu_cầu 652267
Ở 665823
thường_xuyên 650106
diện_tích 647422
diễn_viên 646224
đoàn 703228
lựa_chọn 644181
mắt 674831
ngôi 660439
đào_tạo 640906
thậm_chí 640818
quả 753095
bao_gồm 639340
Cục 665127
chính_quyền 638050
sinh_viên 635906
nhân_viên 634028
đàn_ông 632043
thông_qua 631271
uống 648179
hôm 660608
thông_báo 629843
xanh 649957
nghề 652078
cứ 668570
kiểm_soát 627176
2015 632783
một_cách 623218
hoàn_thành 621329
ngồi 632318
Trung_tâm 617994
không_chỉ 617274
khoản 649596
chẳng 626833
toàn 742806
Đó 621144
Cũng 621470
thi_đấu 605177
tuyên_bố 603088
họp 629753
Về 622348
công 1045707
trưởng 682431
thí_sinh 601304
lịch_sử 598326
mưa 639643
Bà 614633
giới 696834
trở 694785
chỗ 608043
thuê 613534
rừng 604194
bóng_đá 590071
đoạn 636721
hành_động 589002
đô_thị 588820
chụp 601612
thịt 595309
sở_hữu 583131
Giám_đốc 582760
thực_phẩm 581891
nuôi 605611
100 591127
vay 600774
tổng 639881
tài_chính 577489
lâu 597569
ghi 621844
vậy 598233
suốt 585808
thu_hút 570293
đảo 598137
kỹ_thuật 568873
tình_hình 566745
Tết 569390
vai_trò 566536
cuối_cùng 566478
bức 582980
cộng_đồng 562912
sách 635822
khai_thác 562197
phương_tiện 560661
Hai 572355
biện_pháp 558922
ban 628392
trồng 576859
rộng 595802
đăng_ký 556840
giải_pháp 556310
nhớ 570413
chiếm 576304
liên_tục 552928
ổn_định 551934
tích_cực 551692
ủng_hộ 551029
cơ_thể 550818
nguyên_nhân 550492
áp_dụng 550156
trái 586709
đời 584701
ngày_càng 548497
hồ_sơ 547781
Trung_ương 547142
nhạc 568884
nạn_nhân 545365
Loài 545261
lập 605959
chức_năng 541412
thực_sự 541323
truyền_thống 540436
bản_thân 539717
thăm 554335
Chúng_tôi 538390
ô_tô 538235
tầm 557242
bác_sĩ 537863
nguy_cơ 537801
trang 602670
vừa_qua 536759
vụ_việc 536268
con_người 536023
châu_Âu 535750
chú_ý 535643
bệnh_viện 534420
nợ 553555
vai 568637
sức 602530
Luật 549707
toàn_bộ 531261
thành_lập 530609
máu 543243
ký 581065
ca_sĩ 526867
nhanh_chóng 526667
A 533818
trắng 537681
-@@ 524767
cháy 543414
dừng 540949
nỗ_lực 523957
coi 537564
hạn_chế 522338
sự_kiện 522232
chi_phí 520709
núi 533912
đồ 547078
tên_lửa 518880
chục 527834
điều_trị 517672
Họ 524425
Hồ_Chí_Minh 515841
ứng_dụng 515263
giao_dịch 514844
cho_phép 514711
tấn 537876
bao_giờ 512960
thời 723250
cụ_thể 511343
Hội 553204
Hiện 536425
đất_nước 508388
đỏ 522778
Triều_Tiên 507834
áo 525646
bệnh_nhân 506980
trả_lời 506835
số_lượng 506765
nêu 522903
đứa 515739
2010 506927
mở_rộng 505555
cảnh 586992
tặng 520195
đơn 581708
sâu 526393
lý_do 501931
km 506241
chi 557639
chiến_thắng 499783
2014 497613
chứa 509979
Được 506318
nhà_nước 494038
quân_sự 493057
bổ_sung 493004
hình 653202
cảnh_sát 492827
50 503398
tinh_thần 491973
nhất_là 491474
nghìn 506512
chủ_yếu 489198
vé 496847
tai_nạn 488861
niềm 500462
quân 539136
quân_đội 488082
vô_cùng 486933
kéo_dài 486609
toà 484732
tập 595591
phố 575171
Đông 515263
chính_trị 481484
chăm_sóc 480836
kg 482390
vợ_chồng 479899
cảm_thấy 479075
ĐH 486515
Chỉ 504212
mời 489106
ngủ 488452
giới_thiệu 478038
Nguồn 480332
phí 526071
mấy 485026
Đại_học 476656
kinh_nghiệm 474877
hãy 483904
ca 555915
dự_kiến 473652
góp_phần 473511
nguyên 519918
hồi 520706
in 480004
Dù 486415
hạnh_phúc 469730
trẻ_em 469391
cổ 515088
công_an 469179
+ 471968
nghệ_thuật 468747
Thái_Lan 466180
dịp 474955
công_nghiệp 465607
Ngay 478445
S@@ 464524
Uỷ_ban 464257
dân_tộc 463383
đem 473055
hiện_tại 462916
đáp_ứng 462778
câu_chuyện 462405
trăm 472511
tối 498541
tương_lai 459660
Trên 472716
cậu 469029
quý 485422
quy_hoạch 458901
> 458757
tìm_kiếm 458588
thôi 467722
nhà_đầu_tư 458122
đổ 471680
to 468543
18 464699
rơi 466517
tỉ 477481
trở_nên 454181
phiên 486594
tham_dự 453649
cặp 463804
cho_hay 453325
nóng 480394
tỷ_lệ 453079
tốc_độ 452021
hiện_đại 451186
du_khách 450310
– 450592
M@@ 449566
trang_bị 449361
trao 475393
xuất_khẩu 447415
Bắc 489607
văn_bản 445406
Đặc_biệt 445387
vui 465391
nhấn_mạnh 445121
DN 460586
quê 455630
nghỉ 471114
tăng_trưởng 442998
tiếp 615685
tạm 465409
cắt 457688
bờ 451799
nghiêm_trọng 440083
nghèo 451055
báo_chí 439315
B@@ 439050
16 447647
chính_phủ 438247
ra_mắt 438189
thủ_tục 438084
giám_sát 437970
dự 592745
kiểu 447467
chợ 444909
dầu 454943
Tây 468899
xem_xét 434402
thoả_thuận 434333
hình_thức 433306
sẵn_sàng 433050
tình 565514
dạy 443350
Ấn_Độ 432022
mà_còn 431962
bắn 437081
cười 438001
có_mặt 431073
quán 447887
điều_chỉnh 429676
14 443502
ấn_tượng 428453
hành_chính 428013
rút 442174
kết_hợp 427676
ha 433534
xong 433669
thanh_niên 426570
đại_học 426463
lắm 428911
nguy_hiểm 424578
mạnh_mẽ 424376
giáo_viên 423859
lá 435350
Cùng 438643
kẻ 431294
13 431888
rời 435239
đề_xuất 422261
TTXVN 426579
C 428389
tấm 428596
Bạn 428409
chờ 433626
đơn_giản 418690
y_tế 418616
cần_thiết 416767
cánh 431151
dần 429691
cố_gắng 415347
40 422695
giấy 435273
mong_muốn 414820
xe_máy 414671
T@@ 414389
nổi 450840
sắp 426419
đau 428413
nghệ_sĩ 411091
đọc 420537
chở 422354
đen 419121
Trưởng 428648
vũ_khí 410056
D@@ 410018
cửa 457993
chắc_chắn 409552
chiến_lược 409285
phép 450526
đầy_đủ 407969
IS 408112
tình_cảm 406890
Thế 422325
bị_cáo 406270
môn 430873
vô_địch 405209
Ngoài 438853
hồ 441651
bình_thường 404010
Trung 567176
Chính 465171
buộc 421672
hướng_dẫn 401849
nhập_khẩu 401272
đại_biểu 401155
Hoa_hậu 401124
bảo_đảm 401004
kết_thúc 400783
thay 451017
khoá 400048
cấm 415413
hề 411636
phiên_bản 398635
mắc 438484
Mặc_dù 397234
Vì 417595
sạch 409044
cổ_phiếu 397088
xuất_sắc 396279
trời 410008
thể_thao 395807
kém 407926
lượt 414651
siêu 410974
tầng 419270
CLB 404992
2011 393928
Nguyễn_@@ 392064
mặc 411587
Đoàn 406405
lương 404298
đợt 403707
duy_trì 390038
khối 407320
L@@ 389079
phương_án 389054
căn 423642
Báo 404313
thương_hiệu 387962
dễ_dàng 386628
tác_phẩm 384365
ma_tuý 384324
nắm 396563
Viện 401121
ngân_sách 383340
TPHCM 394835
dựa 392509
Sài_Gòn 382760
2012 384706
yếu_tố 382330
25 389547
Y_tế 381146
đối_thủ 380671
nhẹ 393570
truyền_thông 379832
tử_vong 379791
Dự_án 379647
iPhone 384100
chấp_nhận 379277
thu_nhập 378013
khủng_bố 377428
sai 398563
C@@ 377381
mô_hình 376968
PV 380522
phát 592236
gà 381998
hàng_hoá 376364
Cụ_thể 376256
ĐT 377820
xấu 388082
gắn 396496
sợ 388266
cơ_quan_chức_năng 375498
theo_dõi 374807
bầu 395982
tuyển 403859
T 377419
N@@ 374248
quà 382473
cuốn 383125
Bệnh_viện 373751
minh_hoạ 373725
mục_đích 373675
danh_sách 373609
hội 552288
hạng 395514
kiếm 396315
VN 374312
đóng_góp 371806
cứu 428137
súng 379093
nhà_máy 371552
đón 390229
tờ 386794
thôn 391936
tiêu_dùng 370379
2013 372620
Mỗi 376893
thực_vật 369703
Chị 375748
rau 377788
nông_nghiệp 368653
i 368738
trao_đổi 368024
hôm_nay 367278
cạnh_tranh 367069
sự_nghiệp 366444
nhân_vật 366130
V@@ 365715
s 365370
Phòng 386303
17 370763
ban_hành 363868
pha 378734
tác_động 363388
tự_nhiên 363249
H@@ 363028
mô_tả 360955
kết_nối 360852
thúc_đẩy 360833
Do 382561
cựu 368672
ngắn 371312
thiệt_hại 359806
phạt 387010
video 367641
bạn_bè 359604
hấp_dẫn 359582
lẫn 367667
hàng_đầu 358422
Sự 369072
nộp 367907
dư_luận 358115
nàng 367551
điện_tử 357003
R@@ 356437
cơn 364961
Một_số 356309
ban_đầu 356258
cửa_hàng 355998
phá 383903
chế_độ 355414
hâm_mộ 355129
không_gian 354289
bất_cứ 354056
Cảnh_sát 353225
duy_nhất 353200
thua 363540
bánh 363533
năng_lực 352493
thoát 364742
thi_công 352080
Đối_với 351795
bãi 359624
giả 389670
tranh 398327
màn_hình 349684
gốc 361102
Hội_nghị 349363
Facebook 357303
sữa 360913
nhận_định 348559
kèm 358893
đẩy 393205
24 356058
thị_trấn 347595
Ngân_hàng 347439
thử 366801
trạm 352863
ung_thư 345998
2009 346992
song 362326
sáng_tạo 345029
thân 396295
Tập_đoàn 343822
rượu 348090
chiến_đấu 343716
P@@ 343535
t@@ 342875
biến 408658
bão 349446
thế_hệ 342668
chủ_động 342530
Ukraine 344304
Vụ 352236
biên_giới 342085
19 347870
chữ 349964
lo 365087
trước_đây 340988
chi_tiết 340621
khắc_phục 340568
bố 398552
việc_làm 340430
Vào 347157
t 339542
lợi_ích 339079
Thành 386135
rõ_ràng 338776
âm_nhạc 337894
tình_yêu 337745
lỗi 350684
Khu 352523
tiết_lộ 336989
tiêu_chuẩn 336706
vẻ 351411
xung_quanh 336436
phổ_biến 336062
kịp_thời 335974
bảo 460076
Nhật 364302
chậm 345867
bom 340242
chàng 344101
cảnh_báo 333947
chia 396225
lối 343847
m2 335858
học_tập 332171
liền 341439
Apple 335272
200 339139
y 374107
ngàn 338549
quan_điểm 329254
Thanh_Hoá 329126
dấu_hiệu 329060
d@@ 328401
K@@ 328347
cải_thiện 328294
gấp 338944
sự_việc 327648
A@@ 327079
ý_nghĩa 326724
năng_lượng 326657
Nó 330165
căn_hộ 326454
tóc 333384
B 329202
Đồng_thời 325808
thầy 335608
quy_mô 324596
xây 419536
luật 371448
cam_kết 324386
Lúc 330780
ngôi_sao 323592
bày_tỏ 323577
cha 333737
SN 323864
phóng_viên 322139
hy_vọng 322039
Hội_đồng 321815
đồng_ý 321724
di_chuyển 321590
cơ_bản 320592
gỗ 328454
Cách 329920
nét 327937
nổ 328097
hạ 349237
khắp 329241
Xây_dựng 319247
cổ_phần 319095
gió 329594
tiếp_cận 318296
Vì_vậy 317437
G@@ 317142
ca_khúc 317002
tái 338327
thế_nào 316899
toàn_cầu 316876
sân_bay 316865
sự_cố 316728
diện 390074
khai 412087
tồn_tại 315751
bị_thương 315331
cầm 327541
phong_cách 314836
trải 334523
thay_thế 314479
tội 337314
châu_Á 314197
đe_doạ 314183
đề 445557
Nghệ_An 313720
60 319588
trung_bình 313662
21 318220
khách_sạn 312711
kéo 338142
n@@ 312595
s@@ 312066
điều_khiển 312005
đội_tuyển 311627
cảm_giác 311570
hàng_loạt 311362
phản_ánh 310956
chung_kết 310740
may_mắn 310193
lạnh 317296
thừa_nhận 309867
tối_đa 309307
Cơ_quan 309107
xác_nhận 308698
hưởng 376552
Sáng 317072
kỷ_niệm 308263
Tài_chính 308218
tương_tự 308159
phát_biểu 306756
lửa 323995
Con 314361
quên 312153
gia_tăng 306509
ngon 312171
Qua 316800
nông_thôn 305621
thời_trang 305132
hơi 314696
vận_chuyển 303603
Trump 310634
vận_động 302496
vườn 310118
ghi_nhận 302376
thống_nhất 302174
ngừng 313365
E@@ 301951
bây_giờ 301779
bữa 307911
h@@ 301460
đối_tác 301182
truyền_hình 301147
Hải_Phòng 300970
tự_do 300721
O@@ 300610
Iran 307705
ch@@ 300322
hiện_trường 299496
quảng_cáo 299482
Em 304812
Cả 305729
dân_số 299097
thông_minh 299026
trú 319203
THPT 313393
con_số 298839
kia 304584
e@@ 297803
Trần_@@ 297584
tung 307069
đổi 374993
nhân 526471
sân_khấu 296831
tiết_kiệm 296563
máy_tính 296450
500 303133
thu_hồi 296048
hoàn_thiện 295666
hạt_nhân 295400
tìm_hiểu 295320
ít_nhất 295219
Internet 299612
quanh 311089
thuận_lợi 294655
Thành_phố 294381
căn_cứ 293872
phát_hành 293820
công_khai 293725
nỗi 300337
Thổ_Nhĩ_Kỳ 293494
phân_tích 293208
hè 306241
Hàng 303300
i@@ 292708
bố_mẹ 292255
công_nhân 292235
m@@ 291966
b@@ 291929
phân 346461
trang_phục 291622
tổ 413005
đảng 309837
chú 323330
giọng 296992
c@@ 290821
Malaysia 292832
tuy_nhiên 290790
như_thế_nào 290489
hầu_hết 290307
bang 308885
sát 360797
chặt 306662
bất_kỳ 289348
trị_giá 289311
tỏ 309034
loạt 307360
sàn 298377
tư_vấn 288214
Huế 292060
lạ 294911
cưới 293343
cơm 290972
thủ_đô 286703
vận_tải 286558
hạt 300099
23 289873
thành_tích 285964
lợi_nhuận 285818
hết_sức 285100
bậc 293419
kênh 294200
lệnh 301475
Bí_thư 284226
Chelsea 286954
quỹ 294159
Quốc_gia 283637
khô 289629
Hoa_Kỳ 283384
clip 289388
viên 447013
phương_pháp 282655
Sơn 327591
tội_phạm 282241
Thông_tin 282135
ghế 290775
giàu 292371
Ba 292863
hội_nghị 281714
nửa 293533
nạn 315042
chiến_dịch 280994
hành_khách 280581
22 285405
EU 285708
bối_cảnh 279936
đổi_mới 279855
tiến 341400
giúp_đỡ 279714
màn 295459
kêu_gọi 279383
hút 308211
bất_động_sản 279161
đời_sống 278802
lo_lắng 278701
rẻ 283358
hẳn 283047
nông_dân 277970
The_@@ 277388
cơ_chế 277324
giết 281732
chính_xác 277026
Singapore 279462
Hải 321795
bao 326797
dạng 290639
miêu_tả 275840
đàm_phán 275632
tương_đương 275504
dám 280956
dữ_liệu 275398
nắng 297226
lái 285818
TS 279062
Tổ_chức 274362
Lê_@@ 274172
bò 279000
cân 290256
kết_luận 273901
Thanh 342738
quan_chức 273622
động_cơ 273559
áp_lực 273480
hơn_nữa 273086
bắt_giữ 272915
cao_cấp 272835
cú 292435
p@@ 272432
như_thế 272050
Chương_trình 271954
vỡ 278925
Không_chỉ 271783
tuyên_truyền 271385
k@@ 271023
l@@ 270846
Quản_lý 270630
Tây_Ban_Nha 270469
* 274110
chế_biến 269896
ASEAN 279520
lũ 288995
địa_điểm 269085
Cuộc 276413
thanh_toán 269010
xu_hướng 268621
TNHH 279648
GTVT 270894
Philippines 270940
chắc 289635
huy_động 267050
an 401822
cà_phê 266977
tiếp_theo 266520
Quốc_phòng 266454
tiêu_thụ 266450
thanh_tra 266127
lãi_suất 266063
a 266237
kiến_nghị 265310
thẻ 275592
buồn 271396
khóc 269301
xét 313882
tâm_lý 264905
thất_bại 264812
ngã 272478
phát_huy 264139
Hùng 273655
Do_đó 263578
g@@ 263497
Tổng_cục 263390
2008 264342
đừng 270946
chuyên_môn 262378
Thời_gian 262187
bắc 264412
chiến_tranh 261562
tác_dụng 261495
giải_trí 261081
Tuấn 278458
vệ_sinh 261009
Hiện_nay 260943
chặt_chẽ 260485
cảng 265892
giỏi 266625
Nghị_định 260265
7@@ 260165
trật_tự 260133
sinh_hoạt 260088
căng_thẳng 260016
Indonesia 264483
9@@ 259645
Quyết_định 259536
phản_ứng 259411
nổi_bật 259240
I 261741
8@@ 258472
tình_huống 258099
bầu_cử 258072
doanh_thu 257973
chuyên 318133
biểu_diễn 257766
Như_vậy 257570
liên_tiếp 257111
chuyên_nghiệp 256969
e 257965
tổng_số 256888
phức_tạp 256322
chùa 259148
bụng 261689
300 260927
không_khí 255872
thử_nghiệm 255784
giải_thưởng 255762
chung_cư 255332
sóng 272456
Có_thể 255044
vỏ 260835
đạo_diễn 254478
F@@ 254415
chuẩn 296788
y@@ 253994
đấy 257104
trông 267596
Giá 266022
World_Cup 253459
bốn 257333
tổng_hợp 252687
trình_diễn 252515
Là 260958
chứng_kiến 251651
cụ 278655
có_lẽ 251251
khoe 258369
mới_đây 251095
o 251598
lợi 315462
Hoa 273625
phê_duyệt 250748
thai 259026
x@@ 250617
Thứ_trưởng 250594
mùi 256848
Biển 259911
bức_xúc 250126
gương_mặt 250015
lúa 258492
phương 350135
ngăn_chặn 249336
đồng_chí 248703
giải_thích 248607
ngang 259570
Minh 300619
kiến_thức 248359
tự_tin 248225
Chiều 253858
kịp 273389
Như 266310
bền_vững 247445
tài_khoản 247090
tù 258745
khám 263536
I@@ 246535
chủ_tịch 246244
mã 259294
6@@ 245725
dịch 465033
hành_trình 245329
phẫu_thuật 245029
cấp_cứu 244678
nhắc 257864
Hiện_tại 244434
lái_xe 244317
lễ_hội 244252
cực 288271
phụ_huynh 244146
Google 246761
nhập 308641
góc 252071
Hà_Tĩnh 243680
hợp_lý 243565
Tháng 249911
tốt_nghiệp 243219
từ_chối 243164
rác 257801
nghĩa 274189
X@@ 242496
điều_hành 242216
đăng_tải 242187
Nguyễn_Văn_@@ 242026
Đội 252748
bộ_phận 241538
đòi 250898
mức_độ 241349
hậu_quả 241320
tài_năng 241214
u 245406
Kết_quả 241104
chó 245492
v@@ 241009
khí 276671
chữa 259630
chủ_trương 240770
70 244692
h 240687
tiếp_nhận 240342
xếp 256891
trái_phép 240013
cha_mẹ 239489
năm_ngoái 239453
vận_hành 239383
trụ_sở 239374
o@@ 239342
đua 261561
danh_hiệu 239243
cướp 243574
đạn 242766
n 239293
Vietnam 243439
cuộc_đời 238748
nâng_cấp 238601
bố_trí 238432
Đầu_tư 238320
Hãy 243910
a_@@ 237980
gói 252456
Arsenal 240189
già 242428
nhà_trường 237426
ưu_tiên 237370
đèn 243929
lên_tiếng 237259
vua 240426
cảm_xúc 236944
gạo 244043
mặc_dù 236827
Hà 364817
Thậm_chí 236464
r@@ 236335
vì_vậy 236297
thảo_luận 236096
ng@@ 235946
suy_nghĩ 235787
1.000 239652
đẩy_mạnh 235589
Reuters 239351
Nhà 278615
tác_giả 234968
người_thân 234700
Thái 260833
xứ 249487
Bởi 241739
hiện_tượng 234161
tư 385301
tim 244519
tài_liệu 233758
hoà_bình 233628
đào 255098
e_@@ 233220
tài_xế 233180
Chiếc 237476
Lào 243092
trứng 238908
đối_mặt 232932
game 237628
GD 233511
tập_đoàn 232716
bà_con 232573
xinh_đẹp 232507
hình_thành 232332
phần_mềm 232203
băng 244013
sức_mạnh 231515
lợn 239173
thư 279766
Ch@@ 230880
đập 242636
Hồ 263420
hoá 230308
diễn_biến 230276
thưởng 248075
chủ_đề 229869
26 233349
viêm 239338
Nghị_quyết 229070
28 232800
phụ 284287
dây 242514
thú_vị 228124
ar@@ 227954
lao 278875
_@@ 227892
Giáo_dục 227663
tình_dục 227392
thị_xã 227173
Israel 231388
trải_nghiệm 226933
Linh 240879
kinh_phí 226572
Nguyên 243641
Mới_đây 226358
đáng_kể 226139
tín_dụng 225698
giám_đốc 225577
dậy 231537
5@@ 225338
chức 400768
cát 236032
Cần_Thơ 225038
27 227582
CP 230166
rửa 229458
sẵn 239675
phản_đối 223934
tính_năng 223925
đám 232574
lộ 250214
chấn_thương 223666
miệng 228738
Hồi_giáo 223390
mặt_hàng 223155
H 225549
Đ@@ 223071
yếu 260182
ô_nhiễm 223046
Vinh 227790
thế_kỷ 222236
đâm 227603
hoàn_cảnh 222088
lo_ngại 221913
mong 245257
z@@ 221689
tham_nhũng 221471
nhà_khoa_học 221386
tiền_đạo 221279
khảo_sát 221209
thẳng 238905
thời_tiết 220857
thay_vì 220747
thống_kê 220567
may 235795
nghi 238257
quyết_tâm 220327
công_nhận 220080
Văn_phòng 220044
độc_đáo 219798
phong_trào 219461
Vậy 223891
Phát_triển 219035
vì_thế 218952
thách_thức 218594
tập_thể 218500
ga 221833
đăng 264324
tiến_độ 218127
dự_báo 217997
Kim 235664
dân_cư 217852
fan 225697
tuyệt_vời 217752
cung 263875
ngoại 240191
hoà 217175
bao_nhiêu 217110
đàn 240877
2020 272560
Hoàng_@@ 216634
Th@@ 216352
túi 225569
văn_phòng 215819
35 221136
Quảng_Nam 215707
Bình 269254
bình_luận 215520
tươi 222994
Thứ 231860
dường_như 214951
thiệt_mạng 214741
cư_dân 214625
Ngoại_giao 214569
chứng_minh 214287
29 217196
Song 219454
U23 214449
quy_trình 213697
người_mẫu 213484
thẩm_quyền 213462
ý_tưởng 213422
Nguyễn_Thị_@@ 213395
thức_ăn 213390
a@@ 213219
rà_soát 213203
Cho 218542
45 217254
4@@ 213118
tận 229766
bồi_thường 212637
kỹ_năng 212541
Phương 227303
… 212383
Dũng 223998
Iraq 213322
mua_bán 211733
trúng 219372
làn 221003
lưới 223436
f@@ 211116
ngập 220367
xử_phạt 211028
lãnh_thổ 210679
khổng_lồ 210561
Long 240542
nấu 215398
xăng 215054
Samsung 213183
đỗ 216184
lưng 214502
an@@ 209925
U@@ 209809
nhà_sản_xuất 209653
sửa_đổi 209341
u@@ 209283
đội_ngũ 208693
en@@ 208644
Đồng_Nai 208617
trốn 213366
muối 210709
bột 211629
kỷ_lục 207957
vật 256023
Văn_hoá 207920
di_động 207878
Hồng 230100
trình 366108
c 207808
quen 223647
ôm 211229
tường 211337
mũi 216746
Tất_cả 206401
thép 210465
camera 211493
Cty 210065
Du_lịch 205725
cổng 209694
tiền_vệ 205658
truyền 266709
Số 215431
Thủ_đô 205568
một_vài 205362
kho 217996
nguồn_gốc 205330
độc_lập 205327
of 208341
chiếu 216432
công_suất 205262
Brazil 208680
80 208218
toàn_quốc 204806
mảnh 208511
Bắc_Kinh 203958
màu_sắc 203681
anh_em 203603
miễn_phí 203584
thơ 209084
công_dân 203497
er@@ 203432
D 204962
rủi_ro 203347
Campuchia 206360
hạ_tầng 203254
al@@ 203166
giải_phóng 203120
đốt 208723
liệu 248024
đồng_hồ 202374
chứng_nhận 202247
thoải_mái 202205
mm 203397
2007 202772
người_yêu 201311
tài 317021
mặt_bằng 201086
chia_tay 200952
Quảng_Ninh 200852
nhảy 206390
ven 206408
k 200723
phóng 218256
in@@ 200471
Nói 204604
toàn_diện 200386
Bình_Dương 200378
nhà_hàng 200122
liên_kết 200110
Hoàng 235761
M 200446
90 202624
quốc_phòng 199378
phần_lớn 199037
khác_biệt 199033
hại 225959
Dương 228678
tiếp_xúc 198656
độc 221602
sinh_sống 197821
II 201739
Riêng 202526
chỉ_tiêu 197518
Giao_thông 197514
chị_em 197291
sút 205188
trực_tuyến 197239
chuỗi 207090
đường_sắt 196743
hình_sự 196395
Hương 206135
W@@ 196337
xếp_hạng 196334
H. 196059
ngoại_giao 195805
th@@ 195684
Giải 205458
chuyển_nhượng 195104
quần_áo 194852
học_trò 194781
xương 200023
xét_xử 194628
chín 199998
não 198021
trình_độ 194355
sửa_chữa 194348
tâm_sự 194299
de 195821
đòi_hỏi 194133
ấm 200852
tuỳ 194050
mãi 199326
kỷ_luật 193904
Vì_thế 193853
dinh_dưỡng 193848
cập_nhật 193848
nhiễm 235387
Đã 196166
nguyên_liệu 193112
0 194833
ma 218598
đồng_đội 192872
nh@@ 192722
lúc_nào 192216
dọc 199249
tin_tưởng 191886
tiềm_năng 191675
chút 200292
ném 196108
smartphone 194699
Phạm_@@ 191158
nhận_thức 191125
trưa 194516
huấn_luyện 190894
di_tích 190716
Australia 195700
Hiệp_hội 190451
thơm 193913
công_chúng 190288
hồng 199283
bổ_nhiệm 190150
chỉ_trích 190109
chỉ_số 190040
lo@@ 190032
es 189707
Donald_Trump 189662
Mẹ 192709
tai 214954
uy_tín 189336
xả 196017
M.U 189886
dao 196051
32 192840
quan_sát 188644
MC 193049
nhiệt_độ 188341
Hoà 188295
Phát_biểu 188154
động_vật 188089
cơ_cấu 188017
cáo_buộc 187997
Quân_đội 187968
tham_quan 187501
on 187921
đam_mê 187321
treo 191662
en 188458
S 188954
khoa 217885
thời_kỳ 186751
thời_hạn 186586
thương 265137
kín 192017
khung 200083
bớt 190908
cuộc_chiến 186007
Tr@@ 185917
mua_sắm 185796
Nữ 191743
địa_chỉ 185377
Chưa 188868
ánh 201708
phi 197611
nhiệm_kỳ 184832
bí_mật 184585
nói_chuyện 184559
hàng_không 184554
Tính 193358
tự_động 184501
ruột 188736
Lực_lượng 184280
tranh_chấp 184253
khuyến_khích 184069
lô 191895
Đường 191280
ti@@ 183716
sắt 192346
nhé 185537
váy 188658
sau_này 183320
ăn_uống 183157
mái 192554
cách_mạng 182920
pháp_lý 182898
o_@@ 182723
khủng_hoảng 182629
liên_lạc 182558
thành_phần 182427
x 183629
t_@@ 182419
ngụ 188681
kính 190897
tôm 187002
tiêu_chí 182198
Cường 194322
Kinh_tế 182075
lưu_ý 181846
cải_cách 181840
sắc 216880
cố 226372
thanh 233482
kết_hôn 181606
bia 183556
kỳ_vọng 181214
bàn_giao 181093
sốc 185744
ngực 183644
định_hướng 180738
bếp 186005
Mọi 184349
thi_hành 180472
miếng 184429
ra_đời 180118
Y@@ 179969
Gần 183640
xuyên 205459
sốt 188827
Thắng 186561
Uỷ_viên 179486
khúc 191129
chim 181636
tr@@ 179430
VFF 181017
tổng_thống 179038
phỏng_vấn 178985
Nhóm 182782
BHXH 182069
chấm_dứt 178774
Canada 181136
tắt 182120
J@@ 178310
phòng_chống 178295
100% 187071
er 178029
tiêu 279084
thật_sự 177925
viện 219616
tố_cáo 177605
Hải_quân 177587
nhận_xét 177545
đoạt 186544
3@@ 177475
chuyển_đổi 177447
phủ 231306
ép 184781
nội 236698
nhất_định 176712
sở 269137
Washington 179812
Ronaldo 179154
ảo 179941
vẽ 180777
d 176363
yêu_thương 176205
Hình_ảnh 176061
gan 182486
ph@@ 175778
luật_sư 175774
vui_vẻ 175565
xe_tải 175264
trường_học 175238
kiến_trúc 174922
vết 183807
nói_chung 174873
nền_tảng 174762
Tâm 181799
nhà_lãnh_đạo 174697
sai_phạm 174268
Môi_trường 174035
khuyên 178495
Rất 177683
thả 177923
thông 370382
pin 177824
P 175033
chảy 181005
Cộng_hoà 173515
thủ 260417
xuân 176139
phó 189844
10@@ 173178
đồng_nghiệp 173146
vào_khoảng 173078
mơ 181047
Đại_hội 172907
Người_dân 172817
nguyên_tắc 172676
i_@@ 172645
thở 180266
giao_lưu 172628
triển_lãm 172615
Hơn 178757
ý 261357
kỹ 210123
đi_lại 172439
ngược 180651
CSGT 176772
nối 193917
2006 172607
công_chức 172030
khởi_tố 171975
trọng_tài 171919
hầm 175401
cơ 396689
phiếu 194882
ôtô 176485
trừng_phạt 171732
Kế_hoạch 171538
Gia_đình 171409
Bài 176643
thùng 173352
đậm 175708
hiệu_lực 171002
Thế_giới 170971
Lễ 176154
hôn_nhân 170770
hiếm 177474
thói_quen 170654
động_viên 170602
to@@ 170392
âm 195963
lưu_thông 170159
l 170066
công_cộng 170031
thế_này 169778
mét 172677
Công_Thương 169620
Nam_@@ 169612
An 207488
Quốc_tế 169444
400 171995
dẫn_đầu 169032
ký_kết 168813
đắt 173701
lãi 183579
tính_toán 168532
giấy_phép 168311
họp_báo 168072
pháo 170077
nhà_thầu 167594
đỉnh 177294
tiếc 174263
tự_hào 167523
vật_liệu 167361
lâu_dài 167168
T. 167064
vào_cuộc 167033
nhắn 173988
AFP 168073
C. 166921
Đài_Loan 166770
nghiêm_túc 166704
dự_thảo 166382
tiêu_cực 166325
K 167607
Chúng_ta 166233
nút 169844
hương 176432
Hà_Lan 165954
Ngọc 193418
tắm 170231
đại_gia 165610
Hệ_thống 165554
Khoảng 168739
mây 166618
trộm 171989
trà 170364
hài_lòng 164952
tải 194961
hộp 175089
Quang 184000
Real_Madrid 164760
lợi_thế 164677
đền 172093
vùng_biển 164644
chờ_đợi 164453
ia 164410
phạm 227770
góp 209868
N 167124
Thanh_tra 164312
Văn_@@ 164294
hợp 374359
dựng 252146
thuyết_phục 163984
Kim_@@ 163895
the 165631
tỷ_số 163666
lọt 167996
chỉ_huy 163557
tốt_đẹp 163458
thiên_nhiên 163456
L 164822
khí_hậu 163445
điện_ảnh 163342
hệ 257666
g 163857
w@@ 163150
một_chút 163115
Z@@ 163091
đám_cưới 163083
thiết_lập 163073
ống 169242
quyết_liệt 162650
36 166382
nhựa 165757
đấu_tranh 162364
liên_hệ 162360
vật_chất 162353
chế_tạo 162310
Đồng 208726
khen 173025
Barca 167374
Tùng 177663
X 162999
cảm_ơn 161645
phạm_vi 161630
chủ_trì 161513
ngọt 169327
biểu_hiện 161449
2@@ 161248
Vũ_@@ 161192
HĐND 182006
đa_dạng 161128
31 164194
Tuy 227329
ngư_dân 160828
_S@@ 160786
Xuân 192938
lít 161631
News 162651
Tiến 176653
Vũ 178302
E 160986
bật 174819
giấu 164384
ý_thức 159826
kể_cả 159822
bám 166267
Champions_League 159670
nhân_lực 159579
tập_luyện 159556
Liverpool 163543
có_vẻ 159258
bình_quân 159083
giây 163592
Phong 170515
thông_thường 158758
Điểm 163835
Man_City 158662
is@@ 158244
Real 165912
1,@@ 157868
đội_hình 157732
sự_thật 157646
hoàn_tất 157561
NATO 159094
cử_tri 157459
cột 164687
Châu 173055
trưởng_thành 157390
taxi 158084
trống 160797
Úc 159532
cử 184507
phụ_thuộc 157214
50% 164255
chiến_sĩ 157127
thuyền 165817
ngọn 159391
tàu_ngầm 156728
Al@@ 156727
Hưng 168063
kiện 214826
p 156681
ngắm 160078
TAND 162973
giấy_tờ 156598
xuất_phát 156583
Lần 159837
khâu 162438
or@@ 156220
can_thiệp 156183
xưa 160024
ưu_đãi 156069
vất_vả 156050
Thực_tế 155996
tại_sao 155976
bảo_hiểm 155970
nhà_báo 155915
nước_mắt 155685
Nhờ 161743
trôi 158914
khối_lượng 155523
mát 160158
xác_minh 155338
hôm_qua 155248
mâu_thuẫn 155198
bình 205929
cộng 193646
Y 189552
làm_sao 154908
ý_định 154867
nghi_ngờ 154851
nhẹ_nhàng 154827
Hãng 157342
suất 183562
Công_nghệ 154694
xin_lỗi 154640
trừ 163655
hằng 159576
mệt_mỏi 154503
tiệc 158198
định_cư 154207
bến 157055
show 157283
đồng_bào 153876
as@@ 153860
đánh_bại 153734
đạo_đức 153699
tạp_chí 153607
nhạc_sĩ 153602
ri@@ 153450
răng 156664
Đại_diện 153246
khai_mạc 153216
tết 154010
phụ_trách 152933
1.@@ 152864
ánh_sáng 152694
Obama 152947
vitamin 155464
es@@ 152407
tổn_thương 152369
dính 155749
tranh_cãi 152035
tuy 163974
MV 166899
khoảng_cách 151843
BV 154086
Dân 160756
bảo_tồn 151325
thuỷ_sản 151310
sắp_xếp 151294
Thành_uỷ 151247
giảm_giá 151221
gặp_gỡ 150978
giám_khảo 150934
Mai 161069
li@@ 150814
2000 152380
Xem 154328
quyền_lợi 150607
dâu 154931
Chúng 167370
năm_học 150502
Hà_@@ 150499
xung_đột 150499
biểu_tình 150435
y_@@ 150376
giày 155716
Đáng 156731
tuyển_sinh 150249
hưu 153982
Bước 154906
lính 153385
phiên_toà 149961
bướm 150370
Ph@@ 149700
chấm 159895
chứng_khoán 149634
đạo 251161
vỉa_hè 149522
co@@ 149507
Hoà_Bình 149448
kích_thước 149288
lan 171668
thưởng_thức 148998
cải_tạo 148765
hoàn_hảo 148740
top 154456
tức 167367
tách 152195
thái_độ 148663
Trang 160437
mốc 155824
ly 182642
đường_bộ 148403
gắn_bó 148380
chủ_quyền 148244
Dương_@@ 148171
than 152266
khẩn_cấp 147708
đóng_cửa 147705
al 147709
tận_dụng 147621
chặn 162456
ghi_bàn 147493
lần_lượt 147432
bất_thường 147383
hiệp 161499
Lan 160494
dày 154935
đáp 171357
Cái 151087
ngược_lại 147064
số_liệu 146981
khám_phá 146955
VTC 147899
nhiệt 166620
Paris 148645
đối_phương 146762
tôn_trọng 146746
CĐ 147258
tế_bào 146361
Lâm 165586
Chuyện 148449
động_lực 146285
quảng_bá 145991
Ngoại_trưởng 145835
Thông_tư 145754
2005 146107
xuất 302883
đa 176739
công_cụ 145483
Khánh_Hoà 145477
Trao_đổi 145405
tròn 149018
el@@ 145369
Tân_@@ 145292
lỗ 150861
hành 329024
trò_chơi 144944
nhiên_liệu 144917
bạc 154910
Video 146243
đuổi 152583
Dưới 147383
khủng 157593
j@@ 144670
lịch 208277
Putin 146373
Cần 154041
đề_cập 144495
Nghĩa 151972
MU 147892
biến_đổi 144390
buôn_bán 144373
vươn 151198
150 146784
quen_thuộc 144140
chức_vụ 144080
tên_tuổi 144036
hạn 205989
cực_kỳ 143998
đồng_bộ 143956
mực 150876
đất_đai 143936
di_sản 143842
Sao 147594
Barcelona 146639
dự_đoán 143400
loại_bỏ 143318
mất_tích 143275
Nhìn 147404
doanh_nhân 143157
s_@@ 143119
is 143165
tài_trợ 142914
nặng_nề 142871
1@@ 142800
chăn_nuôi 142750
sang_trọng 142738
Tổ_quốc 142587
đặc_trưng 142534
2.000 145934
tích_hợp 142362
Thuỷ 142313
Nghiên_cứu 142291
Nguyên_nhân 142055
.@@ 141944
săn 146914
chìm 144872
rắn 144430
Làm 145399
cân_bằng 141418
ro@@ 141386
Android 142115
đậu 147348
một_mình 141255
sai_lầm 141208
bông 143120
quyền_lực 141078
Messi 146239
Thương_mại 140892
cảm_nhận 140625
hạng_mục 140617
Tổng 188430
bán_kết 140390
dứt_điểm 140354
33 143548
đĩa 142094
định 398680
xứng_đáng 140150
ra@@ 140118
Tỉnh_uỷ 140013
quyến_rũ 139997
cỏ 151757
nghiêm 174350
tây 144558
rộng_rãi 139693
17@@ 139569
quê_hương 139561
Quảng_Ngãi 139492
hoá_chất 139480
tưởng 163795
sâu_sắc 139248
phát_sinh 139216
ngay_lập_tức 139211
giới_hạn 139117
biệt_thự 139089
củ 142254
xóm 143440
bạo_lực 138736
ngầm 143057
nhấn 157909
us 138213
tín_hiệu 138178
tượng 202649
Huy 147556
gương 149755
sạt_lở 137743
inch 139368
giường 142582
tin_đồn 137686
Đại_sứ 137539
trưng_bày 137510
Argentina 138550
la 140879
cờ 141948
phục_hồi 137414
New_York 137383
thần 169561
Giang 156763
xe_buýt 137139
tăng_giá 137035
tâm 250892
Bằng 145334
Kỳ 158496
heo 141347
Học_viện 136860
liên 232553
tiểu_học 136790
on@@ 136723
Thể_thao 136660
chú_trọng 136589
ong 140585
Toàn 144676
thuỷ_điện 136291
quan 376484
Kh@@ 136216
gi@@ 136084
tư_nhân 136065
2019 158329
10.000 139845
R 136275
hot 139335
theo_đuổi 135751
mở_cửa 135172
album 137113
tuân_thủ 135123
an_@@ 134836
_L@@ 134792
Ai 138958
trò 168415
London 135824
34 138214
VĐV 137627
nguồn_lực 134409
hư_hỏng 134365
0@@ 134250
đối_đầu 134248
đoàn_kết 134211
and 135480
Lao_động 134175
T&T 134141
hội_thảo 134067
thận 144047
bụi 137031
Đông_Nam_Á 133639
Phía 137332
động 421937
độc_giả 133347
Báo_cáo 133333
biểu_tượng 133273
trái_tim 133247
khuôn_khổ 133244
củng_cố 133169
ví_dụ 133157
] 133147
phân_phối 132987
trang_trí 132987
BOT 133310
ngày_nay 132848
kêu 143796
Đông_@@ 132761
làm_ăn 132600
mọc 134803
Hồi 138463
thi_thể 132553
ước_tính 132426
Liên_Xô 132230
đối_thoại 132213
H.@@ 132118
Re@@ 131974
gia_nhập 131973
600 134461
le@@ 131904
euro 133139
mỏng 133868
chạm 143830
phấn_đấu 131785
thiên_tai 131763
nghiệp_vụ 131669
cỡ 135776
thử_thách 131545
thích_hợp 131515
béo 136720
tan 136455
[ 131447
F 131603
dàn 137064
Toà_án 131308
Liên_minh 131192
người_bệnh 131128
Moscow 131964
ngạc_nhiên 131011
Trương_@@ 130911
Phải 133582
Ngọc_@@ 130788
sáng_tác 130708
quần 144618
Khoa_học 130649
cm 131581
bơi 135393
nhan_sắc 130497
sơn 133511
am@@ 130299
V 134350
Quận 135192
nụ 133088
phương_thức 130187
2004 130816
HAGL 134776
đông_đảo 129933
10% 132526
đeo 138038
Cup 132497
tối_thiểu 129583
trung 222185
mừng 141205
mềm 136359
Lãnh_đạo 129351
nội_địa 129315
15@@ 129285
kem 130751
chưa_thể 129252
vững 147476
b 129601
Minh_@@ 129103
phạm_tội 129075
Phúc 140045
tuyệt_đối 129000
Bình_Định 128939
bác 150321
cổ_đông 128884
qua_đời 128720
Tổng_công_ty 128606
niêm_yết 128588
Quảng_Bình 128496
cứu_hộ 128439
G 128949
đề_án 128322
12@@ 128208
Phan_@@ 128173
Mexico 130193
lực 257063
tiêu_diệt 128063
công_viên 128054
ng 128126
tiêm 144982
trang_web 127913
siêu_thị 127818
n_@@ 127817
Ai_Cập 127797
do@@ 127779
Ý 130302
mổ 131532
thất_vọng 127662
kịch_bản 127589
so_sánh 127559
Thường_trực 127451
Mourinho 129056
sợi 130072
37 130180
ad@@ 127204
0,@@ 127184
Dự_kiến 127180
Chi_cục 127138
Mar@@ 127054
Cổ_phần 127051
xoay 130373
tuần_tra 127005
khớp 130151
Hơn_nữa 126865
xoá 126801
Mùa 128991
Premier_League 126713
nhà_văn 126674
chiếm_đoạt 126625
minh_bạch 126605
muộn 129327
lắp_đặt 126386
bán_lẻ 126353
gợi_cảm 126265
va_chạm 126238
Thái_Bình_Dương 126228
sửa 143271
trần 129822
trò_chuyện 126049
tính_chất 126028
Nước 129175
bát 128340
Tập 140453
Microsoft 126475
Thanh_@@ 125743
Quân 138158
lợi_dụng 125425
38 128841
qu@@ 125314
mảng 130126
Đại_@@ 125154
_B@@ 125136
mộ 140933
trực_thuộc 124948
GS 125517
Cầu 133340
sản_lượng 124823
kiêm 128056
Thêm 127823
chiến 194455
mỡ 128752
Tin 128285
hài 135874
tư_tưởng 124420
kích_thích 124378
1,5 126822
ấp 127654
khẩn_trương 124228
Hiếu 128283
vùng_đất 124127
Kể 128459
Nhà_máy 124090
từ_thiện 124079
canh 128233
góp_mặt 123906
Thái_Bình 123890
16@@ 123888
động_thái 123878
tại_chỗ 123854
nói_riêng 123827
ngôn_ngữ 123731
Lý_@@ 123711
Liên_quan 123642
bắt_buộc 123562
thu_hoạch 123449
dâng 129434
Thảo 129736
Nông_nghiệp 123302
phát_sóng 123228
Thu 133516
hành_tinh 123198
đẻ 126523
bốc 126629
âm_thanh 123080
Thấy 124325
thừa 136677
20% 126299
khuôn_mặt 122995
Xuân_@@ 122978
tràn 128352
quá_khứ 122890
Đi 125197
hứa 129388
cụm 127644
Hàn 142314
kết 260276
hầu_như 122548
Gia_Lai 122498
đợi 130681
xác 176579
mặt_trời 122356
thức 204760
Có_lẽ 122304
mầm_non 122251
đường_phố 122237
phong_độ 122181
lò 125226
vải 126736
hứa_hẹn 122121
Hải_quan 121870
dông 130435
Phần 124786
đại 244644
Honda 124913
website 123460
chuyên_ngành 121572
Le@@ 121532
khơi 125649
áp 164951
_ 121377
thực 347874
hải_quân 121281
Ngô_@@ 121191
xe_tăng 121131
khói 123617
toả 121040
Đào_tạo 121009
thuốc_lá 120913
châu 147636
Nhân 142822
virus 135715
re@@ 120511
Vân 136807
cá_tính 120444
bọ 122702
Myanmar 120977
giam 125353
tốn 124154
phi_công 120175
Gi@@ 120099
cam 134394
lọc 129735
el 119983
Đà_Lạt 119959
cứng 124461
r 119843
gọn 124415
TV 121127
Tây_Nguyên 119796
giáp 126220
Xe 124307
văn 187264
trâu 120625
Đừng 122350
lừa_đảo 119438
thực_thi 119397
cân_nhắc 119370
Hải_Dương 119042
Văn 195842
Nhân_dân 118910
tông 123913
do_đó 118859
_M@@ 118813
tương_đối 118783
đối_phó 118767
mỏ 122409
hẹn 128525
con_cái 118685
môi 155865
30% 121165
trình_bày 118480
Thường_vụ 118466
chuyển_giao 118450
Thăng_Long 118354
tham_khảo 118314
ghép 122920
u_@@ 118106
Lào_Cai 118033
CĐV 119228
ana 117922
phe 118384
thông_điệp 117782
5.000 119727
khó_chịu 117705
ô 145413
SEA_Games 117464
nhãn 122921
sập 119794
cô_giáo 117389
khiếu_nại 117279
Quảng_Trị 117265
gánh 120655
55 118737
Mình 119473
BTC 118139
cắm 119704
THCS 122886
đồng_minh 116877
co 121604
tiêu_biểu 116541
ngăn 136564
Tổng_giám_đốc 116479
xe_đạp 116301
đài 124536
chứng 177654
14@@ 116159
biên_bản 116133
kh@@ 116088
Đêm 117133
Nha_Trang 115915
diễn_đàn 115888
tổng_thể 115874
Quốc 252821
48 118106
Ho@@ 115725
bất_chấp 115715
Trần_Văn_@@ 115688
trái_cây 115653
dẫn_dắt 115606
thủ_môn 115548
An_ninh 115383
Do_vậy 115344
loại_hình 115311
nướng 117515
chanh 117720
3.000 117840
Ar@@ 115255
Nguyễn_Xuân_Phúc 115252
nhà_nghiên_cứu 115228
Rồi 116717
thẩm_định 115057
il@@ 114945
chai 118430
ho@@ 114907
lập_tức 114898
khoẻ_mạnh 114765
phân_biệt 114692
đuôi 115663
tư_cách 114516
bằng_chứng 114513
khởi_nghiệp 114500
tài_nguyên 114294
trạng_thái 114167
cắt_giảm 114080
phủ_nhận 114011
dừa 115292
ngựa 115409
hỏng 117645
trại 119382
chế 188089
che 117739
đa_số 113588
nội_bộ 113580
khoảnh_khắc 113563
chấp_hành 113551
Cuba 114340
viễn_thông 113532
Bộ_Chính_trị 113500
ac@@ 113470
tour 114878
ứng_viên 113399
Cà_Mau 113394
ch 113449
giật 118126
Hy_Lạp 113278
chốt 122037
Ví_dụ 113170
Xã 118644
ao 114618
AP 114007
cao_tốc 113103
kinh 274994
HS 116073
Hằng 116240
Khánh 127321
tiên_tiến 112799
đảng_viên 112743
trộn 115443
GD-ĐT 115737
O 113020
khởi_động 112628
ly_hôn 112604
Đầu 124400
thu_thập 112455
Bỉ 113240
nhạy_cảm 112420
cánh_cứng 112323
đại_lý 112246
hội_nhập 112156
mạng_lưới 112152
di_dời 112146
nấm 113599
Trước_đây 112060
800 113645
Ba_Lan 112038
không_quân 112025
thợ 115947
as 112019
tỉ_lệ 111919
tổng_cộng 111790
Nam_Định 111767
giảng_dạy 111727
Hiền 115999
tướng 145445
Bồ_Đào_Nha 111578
đề_tài 111531
ước 130886
phun 115249
nhân_sự 111437
bẩn 113074
Mai_@@ 111298
thải 124001
đồng_tiền 111225
khuyến_cáo 111222
42 113292
bài_học 111193
1/@@ 111188
vi_khuẩn 111085
Tài_nguyên 111058
Sông 114297
năng_suất 110980
thiết_thực 110970
bọn 112626
công_bằng 110878
ngại 125431
Trận 113167
sân_nhà 110801
đôi_khi 110761
mượn 113626
tập_trận 110618
hoa_hậu 110605
Truyền_thông 110575
tố 148308
BHYT 114691
Ma@@ 110376
hắn 111556
@@ 110232
Chia_sẻ 110200
nghĩa_vụ 110053
xúc_động 110037
đành 112085
at@@ 109969
lộ_trình 109924
nghề_nghiệp 109879
cơ_sở_hạ_tầng 109876
hợp_pháp 109872
lứa 113307
phổi 113297
Á. 109814
Bản 129860
HĐQT 112181
sáu 111813
xét_nghiệm 109346
01 110980
Q. 109225
căn_bệnh 109216
bỏ_qua 109213
tu@@ 109191
khổ 116403
công_văn 109100
trọng_lượng 109048
quần_đảo 109035
học_viên 108901
Nhiệt_độ 108827
Thái_Nguyên 108804
toà_án 108704
di@@ 108692
tay_vợt 108686
ar 108584
tương_ứng 108531
Bùi_@@ 108488
bàn_tay 108402
Co@@ 108398
ngâm 110160
thú 122357
truy_cập 108334
khẩu 161719
triệu_chứng 108248
nhập_viện 108247
tháp 110000
An_@@ 108208
thân_thiện 108087
mai 112675
đấu_giá 107988
65 109344
m_@@ 107886
tiến_bộ 107797
Vấn_đề 107738
2003 108483
hàng_xóm 107675
thí_điểm 107593
lu@@ 107541
đồng_hành 107413
U19 107686
giấc 111257
39 110604
Khu_vực 107215
An@@ 107205
trung_ương 106933
man 108226
bạn_đọc 106895
Cứ 108645
Đặng_@@ 106800
mạch 118036
ốc 109848
Trần 140131
thờ 110256
13@@ 106645
internet 108391
xăng_dầu 106579
ngờ 128729
đáy 108771
chuối 109140
đỡ 116166
phong_phú 106451
bị_can 106439
Cuối 111087
xử 172934
Trường_Sa 106172
Lê_Văn_@@ 106172
so@@ 106122
lông 109618
APEC 106220
lưu 137290
Tổng_hợp 105939
phòng_không 105922
đột_phá 105897
Huỳnh_@@ 105832
Cuối_cùng 105827
thực_tiễn 105817
Đỗ_@@ 105811
biên_chế 105797
vui_chơi 105788
ma@@ 105716
Olympic 107537
bí_ẩn 105655
Bắc_Ninh 105578
Nên 107386
non 111884
chặng 109873
câu_lạc_bộ 105446
Hôm 110045
Phụ_nữ 105264
chừng 108628
đẳng_cấp 105065
chinh_phục 105022
hôn 122094
Đúng 107016
75 106301
hiệu 212063
anh_chàng 104748
hậu 133981
Lễ_hội 104636
phiến_quân 104531
đường_dây 104501
Di@@ 104494
chi_trả 104485
Thái_@@ 104345
tạm_thời 104315
bỏ_phiếu 104189
thi_đua 104181
thẩm_mỹ 104115
Tổ 130678
diễn_xuất 104032
Không_quân 103954
Lý 119544
BĐS 107638
tiêu_hoá 103932
Nh@@ 103845
Long_An 103806
chủ_nhân 103792
chứng_tỏ 103730
thuê_bao 103653
Xin 104812
vướng_mắc 103608
showbiz 105685
46 104798
hỗn_hợp 103489
trọng_điểm 103462
thích_thú 103421
Dân_chủ 103395
it@@ 103376
cẩn_thận 103371
đầm 105452
chữa_cháy 103258
tiết_mục 103237
bơm 105461
Toyota 106665
Đề_án 103097
đánh_dấu 103083
Tú 107640
chuột 104837
CNTT 104273
dáng 113427
1990 103439
2-3 105564
binh_sĩ 102808
điển_hình 102767
Ng@@ 102707
2,@@ 102681
Bắc_@@ 102631
hậu_vệ 102630
dấu 124265
nghiện 107035
Sơn_La 102572
hiến 110105
Nhà_Trắng 102518
giàu_có 102502
700 104543
Viettel 107574
đình_chỉ 102373
đối_lập 102357
nở 105106
dự_định 102312
et@@ 102289
ơi 103053
nữ_sinh 102250
gỡ 114316
chấp_thuận 102070
sưu_tập 102030
Tư_pháp 101990
Tuy_vậy 101962
công_nghệ_cao 101904
sen 103898
5% 104057
giáo_sư 101685
Đài 109200
đối_diện 101491
GDP 104466
vở 103791
ứng_xử 101388
bảo_quản 101309
hẹn_hò 101245
gần_gũi 101196
BS 102556
ta@@ 101079
Hồng_@@ 101073
Công 238895
đo 108381
rạng 104257
Bình_Thuận 101012
trị 203916
Park 104447
văn_minh 100900
cải_tiến 100898
bảo_mật 100833
us@@ 100781
bộ_máy 100760
mẹ_con 100750
phòng_thủ 100676
Xã_hội 100666
tập_huấn 100634
lãng_mạn 100611
biến_động 100608
Quý 108875
gạch 103321
nhất_trí 100526
suối 101862
tiết 144687
múa 102320
chúc_mừng 100106
người_lớn 100085
Nội_vụ 100015
gã 102079
leo 104728
vết_thương 99947
yên_tâm 99921
huỷ 99912
Lộc 104630
Lưu_@@ 99784
ab@@ 99768
Chi 111751
Quỳnh 107091
ước_mơ 99542
lãng_phí 99541
Car@@ 99492
ngón 101542
phát_động 99449
id@@ 99388
không_kích 99332
ẩm_thực 99324
hy_sinh 99210
Tổng_Giám_đốc 99162
hòn 101100
viên_chức 99021
đau_đớn 98984
chém 100086
Ninh_Bình 98836
Thật 101297
dạ_dày 98792
TP.HCM. 98755
Hiệp 117541
nhầm 101119
Vũng_Tàu 98692
giá_cả 98673
mặt_đất 98618
ine 98608
Afghanistan 99212
tình_báo 98431
Hạ_Long 98401
chi_nhánh 98394
liên_minh 98380
ensis 98301
120 100374
quản_trị 98155
chi_tiêu 98097
nồi 99946
quốc_lộ 97999
43 99384
lý_tưởng 97742
ap@@ 97711
cúp 99106
dốc 100034
trẻ_trung 97665
son 99989
Cao_@@ 97583
ruộng 100388
cấu_trúc 97542
HIV 99034
Phú_Thọ 97502
dập 101212
nhì 99169
Tàu 103459
Phật 101743
học_bổng 97404
dấu_ấn 97369
khắp_nơi 97366
nghỉ_ngơi 97326
dân_sự 97240
Tài 117908
al-@@ 97166
đ@@ 97148
gãy 98706
yên 104414
nam_giới 97119
đói 100400
Se@@ 97023
Thuỵ_Điển 96940
kịch 109546
Trường_hợp 96832
anh_hùng 96787
phong 137186
Đại 155866
Trả_lời 96535
thu_giữ 96510
bình_chọn 96486
áo_dài 96467
bất_cập 96451
khoẻ 96436
vệ_tinh 96343
.. 97295
nguyện_vọng 96270
Chủ_nhiệm 96258
nhắc_nhở 96249
châu_Phi 96201
bản_quyền 96197
2.@@ 96182
vận 141136
um 96362
giảng_viên 96142
dân_gian 96138
trực_thăng 96107
Vàng 102013
Liên_đoàn 96045
mèo 97309
Italy 97828
thân_thiết 96002
căng 107943
Sh@@ 95967
Giờ 100154
ứng_phó 95819
Hầu_hết 95799
sức_ép 95778
1999 96550
ag@@ 95693
v 95732
Lương 102541
Trung_@@ 95585
hài_hước 95545
Tiếp 103402
tuyển_dụng 95435
quãng 98088
ngõ 97912
Liên 119575
III 96790
le 95450
ic@@ 95204
đ 95502
ớt 96807
danh_mục 95176
ngọt_ngào 95162
một_nửa 95135
cố_tình 95096
Vận_tải 95095
tỷ_phú 95056
tin_tức 95050
2002 95530
bản_đồ 94956
Q@@ 94935
trụ 109571
Tối 98061
nhịp 99386
47 95939
người_nhà 94737
100.000 96672
An_Giang 94635
41 96036
Phú_Yên 94602
Nếu_như 94567
to_lớn 94546
Bo@@ 94482
tuyệt 106929
đà 99962
tiểu 107336
U 94846
dãy 96970
hiện_diện 94260
Vương_@@ 94237
ùn_tắc 94207
HCV 94486
huyền_thoại 94193
say 97141
na 94477
Mo@@ 94126
lạc 107962
44 95883
Bé 96202
dân_chủ 94034
z 94022
im@@ 94005
đồn 102159
hải_sản 93831
động_đất 93795
Plus 94705
49 94911
Bình_Nhưỡng 93626
vắng 97169
đô_la 93445
Thiên_@@ 93445
Trung_Đông 93444
nước_thải 93372
PCCC 96412
trinh_sát 93325
dán 96670
đón_nhận 93191
nhắm 95657
lành_mạnh 93147
64 93892
63 95287
Dung 95843
xe_khách 92985
cây_xanh 92902
học_hỏi 92876
trượt 94486
thảm_hoạ 92824
Lâm_Đồng 92821
Đảng_uỷ 92768
Thực_hiện 92761
tinh_tế 92738
lưu_trữ 92693
huy_chương 92668
tiệm 94441
phá_huỷ 92556
phổ_thông 92498
quy_chế 92484
Trần_Thị_@@ 92449
tư_duy 92419
khách_quan 92408
trọng_tâm 92386
Lo@@ 92367
Liên_hợp_quốc 92353
thẳng_thắn 92275
xuất_bản 92266
hữu_nghị 92227
Sinh 95920
từ_bỏ 92112
2001 92721
Nhận 97046
thực_chất 92017
mụn 93389
at 92012
trùm 94143
sinh_nhật 91898
trang_điểm 91864
ngoại_hình 91863
Á_hậu 91856
Sa@@ 91775
Top 95301
Công_Phượng 91760
Mức 94153
phần_nào 91686
chỉ_định 91621
kim 101300
Thịnh 93585
51 92201
vô_tình 91384
os@@ 91366
ông_bà 91324
khống_chế 91294
Tiếng 94398
hiểu_biết 91136
Bác_sĩ 91121
làm_đẹp 91051
rối_loạn 91030
su@@ 91029
huấn_luyện_viên 90996
ne@@ 90979
sơ_thẩm 90924
duyên 95053
vị_thế 90833
đăng_quang 90832
lừa 97883
250 93178
nhìn_nhận 90796
mật 105082
Bác 99946
nông_sản 90693
thập_niên 90675
nghỉ_dưỡng 90671
Giáo_sư 90671
Bar@@ 90629
ạ 91192
linh_hoạt 90580
nếu_như 90551
bọc 93339
tham_mưu 90449
chiến_thuật 90433
miễn 104145
sa 94511
te@@ 90305
lậu 93211
đồng_nghĩa 90205
tính_cách 90191
song_phương 90092
Hạnh 93013
xôn_xao 90089
N. 90050
Doanh_nghiệp 90036
dữ_dội 89841
tranh_thủ 89785
Cậu 92178
chất_thải 89703
tre 90902
Su@@ 89662
vận_động_viên 89608
chiến_trường 89576
luật_pháp 89575
20.000 91500
54 90915
Nghe 91440
se@@ 89475
sôi_động 89445
trang_thiết_bị 89435
Italia 89988
Đại_tá 89381
Hà_Đông 89353
52 90159
km/h 89988
Lê_Thị_@@ 89185
lạm_phát 89137
P. 89132
sổ 100364
Twitter 91393
nội_thất 88971
Bắc_Giang 88921
U. 88918
cống_hiến 88883
đồi 91353
thổi 91912
Lâm_@@ 88736
chiến_binh 88699
năng_động 88626
ina 88625
eo 91411
văn_học 88583
dự_phòng 88575
chào 97623
VTV 89382
đoán 98597
cục 109898
bồi_dưỡng 88365
lẽ 99527
chênh_lệch 88322
xe_hơi 88308
quá_tải 88275
gia_vị 88270
đối_ngoại 88269
can 98138
phòng_ngự 88259
Vi@@ 88191
thầy_trò 88173
Chủ 146576
Kiểm_tra 88077
Windows 88808
tức_là 88034
tím 91342
Hà_Giang 87914
am 89208
quốc 204000
bấm 89933
đền_bù 87684
cổ_vũ 87670
Qu@@ 87625
Bây_giờ 87607
nắng_nóng 87589
Quang_@@ 87505
hiện_hành 87503
diệt 92227
tổ_hợp 87457
Hiệu_trưởng 87443
Pakistan 89064
công_lập 87419
công_nghệ_thông_tin 87382
Khoa 98290
trước_mắt 87326
m3 88411
70% 89908
Lịch_sử 87242
FIFA 87707
k_@@ 87194
tính_mạng 87157
Thời_điểm 87122
dài_hạn 87103
trục 93428
La_@@ 87058
bắt_tay 86976
Phú 116524
kiên_quyết 86954
khởi_công 86913
tiến_sĩ 86811
Ảnh_@@ 86777
trân_trọng 86774
lắp 100972
bác_sỹ 86730
thường_trực 86719
doanh_số 86648
máy_móc 86620
thắc_mắc 86619
Tờ 89379
làm_nên 86591
nghị_quyết 86568
72 87616
iPad 86815
Tổng_Bí_thư 86401
Nguyễn 190576
rạp 87714
To@@ 86325
Quốc_lộ 86263
đứt 90036
rèn_luyện 86101
bán_đảo 86066
chè 87002
Áo 87026
56 87285
trọ 90699
Luật_sư 85931
bu@@ 85867
tin_cậy 85821
So 89609
Chánh 89675
giao_tiếp 85757
Bảo_tàng 85752
Liên_bang 85747
thắt 87813
trang_trại 85722
thần_kinh 85715
mo@@ 85701
vương 89126
Hải_@@ 85606
giữ_gìn 85577
.... 85511
hoá_đơn 85497
rét 85885
vui_mừng 85370
cách_thức 85280
L. 85207
online 88609
Mặt_trận 85030
cung_ứng 85021
cước 86530
em@@ 84984
chúc 92926
Việt_@@ 84968
T.@@ 84931
Hôm_nay 84915
giờ_đây 84891
Công_@@ 84891
vững_chắc 84864
dịch_bệnh 84824
ak@@ 84807
tỏi 87334
Võ_@@ 84687
ứng_cử_viên 84670
hội_đồng 84657
đàn_bà 84593
ẩm 90623
Chỉ_đạo 84536
dạo 86836
NN 84678
khôi_phục 84428
chẩn_đoán 84418
à 84647
Triển_lãm 84349
kỹ_sư 84253
Hiệp_định 84233
cảm_hứng 84196
Đồng_Tháp 84183
điện_thoại_di_động 84143
quản_lý_nhà_nước 84138
thập_kỷ 84117
tàu_sân_bay 84095
HĐXX 86624
ir@@ 84058
rực_rỡ 84002
LHQ 85095
30.000 86738
Trạm 85490
thắng_lợi 83840
Bị 88556
sân_chơi 83793
Công_tác 83777
A. 83724
Kiên_Giang 83707
bê_tông 83703
cua 85155
chip 87430
lạm_dụng 83628
chất_liệu 83604
giám_định 83572
đường_cao_tốc 83569
Yên_Bái 83562
email 84240
sôi 88107
lý_giải 83478
Cuộc_sống 83420
MT 83688
voi 84911
ang 85555
nhí 84901
Đắk_Lắk 83156
NHNN 84314
Tây_@@ 83074
CN 83594
Milan 85273
sợ_hãi 82984
dưỡng 100684
Nhà_hát 82896
ng_@@ 82892
18@@ 82883
4.000 84879
nhiệt_tình 82868
thân_hình 82819
đòn 85305
nát 84282
triệt_để 82715
CEO 85542
đặc_thù 82615
đằng 84005
Tiến_sĩ 82588
khăn 119015
xăm 83505
Thị_@@ 82450
lắng_nghe 82434
V-League 86097
Tất_nhiên 82399
hang 84052
Ro@@ 82375
De@@ 82318
tiến_trình 82303
_C@@ 82295
Uber 83666
quan_niệm 82200
phanh 84589
Phim 84139
TT 82642
So@@ 82064
Thuận 89132
phẩm 170234
Hậu 90035
Câu_chuyện 82016
Mặt_khác 82008
khuyết_tật 81967
Ne@@ 81933
Vịnh 83884
Long_@@ 81897
cao_điểm 81851
Galaxy 85436
Toà 81835
Phạm_Văn_@@ 81831
Hay 83766
Bản_thân 81779
Dân_số 81771
lớp_học 81674
kế 144778
hệ_điều_hành 81641
lý 225035
2,5 83170
hổ 84843
ol@@ 81442
vòng_loại 81412
bi@@ 81389
hàm_lượng 81335
thực_trạng 81319
Đa_khoa 81309
Am@@ 81295
Đinh_@@ 81248
Cầu_Giấy 81196
20@@ 81141
te 81569
đỉnh_cao 81097
rác_thải 81083
giải_cứu 81056
dồn 84625
Tokyo 83104
thành_tựu 80949
40% 83310
đánh_bắt 80844
kim_loại 80841
Nokia 81242
đồng_tình 80828
TN 80810
ngộ_độc 80739
Đảng_bộ 80733
đột_ngột 80681
gia 332512
80% 82866
Cây 83315
Công_nghiệp 80592
container 82264
tôn 93782
CSĐT 82130
sát_hại 80400
Đại_sứ_quán 80362
tôn_giáo 80358
sạc 82429
lỡ 82971
53 81220
Quả 82741
trọn 86947
số_phận 80162
Nội_dung 80109
vịnh 82084
đầu_mối 80013
lát 81253
trích 88801
62 81152
tiền_mặt 79944
nóng_bỏng 79929
chất_vấn 79902
Tuấn_Anh 79894
Tân 99487
Li@@ 79861
đối 248652
Dùng 80974
f 79902
nếp 82356
BKS 81642
chẳng_hạn 79733
Câu 84754
bảy 81312
hành_lang 79644
tôn_vinh 79641
truy_tố 79608
nước_sạch 79605
nâu 81115
vạn 81542
Trấn_Thành 79531
02 81158
Hoàng_Anh 79524
50.000 81131
John_@@ 79465
Hoàn_Kiếm 79460
cực_đoan 79434
ul@@ 79391
đặc_điểm 79375
Tiền_Giang 79374
bận_rộn 79373
mê 88206
Quy_hoạch 79317
băn_khoăn 79266
thời_đại 79253
ổ 90018
Sang 81981
thực_hành 79203
Tương_tự 79176
Tư 88053
3.@@ 79151
trung_vệ 79141
ed@@ 79130
sinh_học 79130
Lý_do 79119
loa 80579
Thương 94990
Hội_An 78972
dao_động 78931
gục 80373
Bình_@@ 78896
Chung 87433
giảm_thiểu 78800
binh 91615
đấu_thầu 78704
trái_phiếu 78678
nhà_cửa 78673
Me@@ 78672
tác_chiến 78662
có_khi 78622
xâm_nhập 78613
sh@@ 78576
M. 78516
tiền_lương 78473
Châu_Âu 78462
mật_độ 78449
huyết_áp 78444
cản_trở 78393
Muốn 79714
vây 79972
58 79837
xuống_cấp 78267
dự_trữ 78239
quy 193424
In@@ 78218
thằng 79281
Loại 79532
cô_dâu 78169
Nơi 79984
Đạt 80817
Hong_Kong 78036
tổng_kết 78034
lùi 82002
đồ_ăn 77832
đề_cử 77823
cao_su 77820
trao_tặng 77802
lấp 81091
2% 78571
vướng 84771
học_phí 77689
AFF 77834
_H@@ 77601
độc_hại 77592
tình_nguyện 77578
1995 78148
Quốc_@@ 77564
ho 79645
Tỉnh 99794
cân_đối 77467
Sẽ 78851
Trịnh_@@ 77406
ter@@ 77379
cửa_khẩu 77356
10/@@ 77336
di_cư 77304
khéo_léo 77294
nổi_dậy 77285
1% 78427
FPT 78564
Ford 78669
thận_trọng 77212
chiêu 80117
Trà 82653
vượt_trội 77184
Clip 77754
90% 79904
ám_ảnh 77113
chả 78585
bù 83296
3% 78026
Phương_@@ 76951
sáng_kiến 76896
cành 78909
xuất_xứ 76879
California 77575
hải_quan 76834
VOV 77097
Lạng_Sơn 76756
Ko@@ 76712
phòng_ngừa 76701
Tottenham 79481
dọn 80066
vịt 77769
Vừa 79211
hương_vị 76595
mục 128386
ngăn_ngừa 76567
Tại_sao 76564
Hưng_Yên 76541
tham_vọng 76537
tủ 81406
bởi_vì 76512
Quỹ 80280
giá_thành 76496
Du@@ 76488
cống 82541
sáng_lập 76407
sa@@ 76395
si@@ 76387
ngoại_tệ 76366
vi@@ 76346
girl 77626
Mà 77185
Đất 81415
khởi_đầu 76258
Neymar 76643
ni@@ 76217
đựng 82655
3,@@ 76129
Hu@@ 76125
d_@@ 76096
nghiêng 77706
va 83374
Quá_trình 76056
Lương_@@ 76038
nhắn_tin 76035
1998 76827
T.Ư 78509
bản_lĩnh 76002
Bảo_vệ 75996
phơi 77673
mỹ_phẩm 75967
4.@@ 75954
cúm 76885
Vụ_việc 75900
et 75889
hồi_phục 75847
en_@@ 75836
thăm_dò 75702
Bức 77311
Gia_@@ 75607
không_những 75604
ghé 77215
giải_toả 75493
Loan 78660
im_lặng 75407
Po@@ 75397
Juventus 77730
1-2 77879
bác_bỏ 75301
khu_phố 75270
ki@@ 75242
suy_giảm 75230
Hoa_@@ 75198
ngưỡng 82755
Dự_báo 75163
Ngôi 76800
67 75554
tệ 85264
nhánh 80825
Nhi 78133
tháo_gỡ 75056
liều 77367
bo@@ 75050
Thuỵ_Sĩ 75049
Euro 75904
rủ 77063
Thư 79981
Bảo 92283
Ban_đầu 74982
cắn 76233
cất 78778
VNPT 77260
móng 77378
Diễn_đàn 74862
Giới 78311
đống 76865
trộm_cắp 74770
Thanh_niên 74680
5/@@ 74667
chi@@ 74625
radar 75489
Hội_thảo 74579
ci@@ 74561
Giải_thưởng 74428
1997 74807
Lu@@ 74392
đình 133089
đau_đầu 74334
km² 74347
đặc_sản 74317
cửa_sổ 74234
_G@@ 74176
Q 74969
Mẫu 76284
la@@ 74079
Lời 75695
mưa_rào 73980
phản_hồi 73977
Chính_quyền 73931
Quỷ 75560
tỉ_số 73916
vũ_trụ 73913
kinh_hoàng 73901
om@@ 73825
thị_phần 73784
Tới 75576
chuyền 79828
chức_danh 73665
bưởi 74525
rao 77623
cay 75366
Vĩnh_@@ 73616
Venezuela 73790
cố_định 73550
sáp_nhập 73448
chủ_sở_hữu 73432
danh_tiếng 73386
gói_thầu 73380
kỳ_lạ 73311
robot 73873
Cặp 74861
1992 73901
tranh_luận 73243
thượng_đỉnh 73195
se 74618
ter 73190
tựa 75615
kép 75804
Nam_Phi 73154
lạc_quan 73141
57 73871
trợ_giúp 73070
chân_thành 73038
nhân_tạo 73033
khoan 75331
Thanh_Niên 73001
tàu_chiến 72991
Vĩnh_Phúc 72980
PC 73374
men 74410
facebook 74010
dụng_cụ 72925
thương_vụ 72893
chôn 73696
bước_đi 72873
Đống_Đa 72852
chê 75755
Kiên 80574
1993 73577
giải_ngân 72679
cúng 76581
Bắc_Bộ 72617
nghi_vấn 72548
mặn 76835
Phú_Quốc 72510
tứ_kết 72504
de@@ 72503
er_@@ 72500
đắp 76106
chậu 74500
xưởng 75598
NSƯT 76740
mồi 74148
ton 72716
cao_đẳng 72323
Kỹ_thuật 72303
No@@ 72268
đồ_chơi 72251
cảm 135780
truyện 73948
hạ_cánh 72202
tranh_cử 72179
Lê 104721
85 73041
Hồng_Kông 72128
tiện_ích 72122
đình_đám 72074
Mi@@ 72024
phân_công 71999
vội 74535
đặt_hàng 71906
Thị_trường 71900
68 72609
1994 72304
ay@@ 71867
bùng_nổ 71848
gay_gắt 71837
trí_tuệ 71836
bó 79380
1996 72442
đảm_nhận 71776
Vợ 74249
khen_ngợi 71726
Hà_Nam 71723
200.000 73823
7% 72762
đồng_loạt 71715
bình_tĩnh 71686
lân_cận 71654
hiển_thị 71643
ồn_ào 71639
nhập_cư 71614
Chẳng_hạn 71588
Dịch_vụ 71572
hào_hứng 71538
tự_nguyện 71495
đích 88440
xúc_tiến 71463
Hoàng_Sa 71449
ngày_một 71421
chuyển_biến 71311
tiền_bạc 71299
6/@@ 71286
Quyền 73702
báo_động 71225
vóc_dáng 71197
thái 93057
lương_thực 71118
thầy_cô 71114
nắm_bắt 71109
El@@ 71108
Ngọc_Trinh 71071
Tây_Bắc 71058
MTTQ 77439
đặc_sắc 71043
Bảo_@@ 71036
500.000 72521
Tiền 80346
no@@ 70981
Par@@ 70977
HTX 74895
SLNA 74244
66 71862
sở_thích 70941
em_gái 70927
D. 70884
đê 73500
FC 76997
mong_đợi 70860
Mục_tiêu 70855
un@@ 70848
bề_mặt 70823
Tình_trạng 70801
3D 71768
ing 70870
thu_mua 70783
Buổi 71779
bút 72907
luồng 72746
9.@@ 70703
ngưỡng_mộ 70700
Bu@@ 70669
bất_ổn 70610
bắt_cóc 70606
bệnh_tật 70603
cấp_uỷ 70581
mã_lực 70545
tị_nạn 70512
tia 72235
Ngân 86336
Hồ_Ngọc_Hà 70450
ella 70413
nước_biển 70409
Palestine 71014
mái_tóc 70347
nhậu 72382
4% 70615
tưởng_tượng 70245
au@@ 70210
Viên 72969
gian 183700
um@@ 70150
ed 70142
giáo 121012
idae 70108
bài_tập 70062
88 70659
Duy 79184
3/@@ 70028
bước_đầu 70024
tiền_tệ 70009
Chu_@@ 69994
hết_mình 69983
hàng_hải 69933
Vương 77773
a-@@ 69899
đất_liền 69894
Qatar 70322
Trường_Giang 69847
Toán 70906
gian_lận 69796
phụ_kiện 69779
lặn 71137
6% 70412
cảnh_quan 69746
Giấy 74466
Cảnh 86239
luộc 70482
gia_hạn 69682
Sơn_@@ 69675
liệt_sĩ 69636
Be@@ 69621
no 71169
Bảng 71284
cảm_biến 69566
mồ_hôi 69542
ata 69534
av@@ 69528
để_ý 69512
ngô 71026
Nhất 76110
Har@@ 69493
me 69964
ngoại_ngữ 69475
.com 69458
cốc 70754
bỏng 72543
nhà_thờ 69366
Vẫn 70711
trợ_cấp 69318
tuyết 71122
Hữu_@@ 69273
phân_loại 69245
1991 69552
Giữa 70790
Đại_biểu 69228
ya 69225
nghiệp 226984
im 70893
99 70002
từ_chức 69091
sinh_thái 69076
59 70810
Huyền 72658
Lợi 71686
cáp 72815
5.@@ 68993
4/@@ 68972
kê_khai 68952
thường_niên 68939
tư_thế 68939
quyết 180180
60% 70808
Tuyến 70531
địa 204838
Châu_@@ 68831
đồng_thuận 68815
Kiev 69616
địch 83228
po@@ 68760
bar 69670
lành 75182
mô 103131
Do@@ 68690
Siêu 70828
i-@@ 68649
táo 72342
triệu_tập 68611
di 104260
Sản_phẩm 68587
bể 72167
hoàn 144567
qua_lại 68503
tỷ_giá 68490
ng-@@ 68463
tự_tử 68407
tò_mò 68393
giới_tính 68378
đạp 73535
GB 68897
Grab 68986
chui 69569
nghĩa_là 68199
thủng 69777
giọt 70268
chào_đón 68163
vang 70822
8% 68963
Tên 69399
900 68957
Phượng 73778
iOS 69187
bến_xe 68052
buôn_lậu 68028
khép 70304
đẹp_mắt 67930
dương 82441
1-@@ 67897
chịu_đựng 67857
aceae 67839
Đình_@@ 67766
thấm 69780
vật_thể 67736
Chiến 75663
Barack_Obama 67689
ngành_nghề 67671
CNN 69406
Man@@ 67644
Chồng 69530
LG 68511
1.500 68542
điều_hoà 67583
chuông 68374
Sự_việc 67555
Liên_Hợp_Quốc 67536
giếng 68394
yêu_mến 67521
bỗng 69660
Nguyễn_Ngọc_@@ 67492
kim_ngạch 67455
hoạ_sĩ 67454
cây_trồng 67415
Đối_tượng 67414
Seoul 68263
cho_dù 67413
tự_chủ 67384
vốn_điều_lệ 67341
eb@@ 67318
lồng 70589
dải 70458
KH 67328
dầu_khí 67275
Ăn 69228
Toàn_bộ 67200
dạy_học 67196
tiềm_ẩn 67189
hở 69293
Công_Vinh 67133
15/@@ 67121
tập_hợp 66982
th 66967
gừng 68812
hoang_mang 66945
Tết_Nguyên_đán 66915
bình_đẳng 66914
Biên_phòng 66866
sườn 67891
thưa 68501
hiệu_ứng 66835
12/@@ 66834
Đào_@@ 66827
N.@@ 66827
Thọ 74134
Không_những 66814
Công_viên 66797
NLĐ 68666
phân_bón 66784
suy 85993
nhà_thiết_kế 66766
Tự 69448
1980 67015
khả_thi 66732
ví 75097
P.@@ 66699
Trí 69502
Điện_lực 66666
lưu_giữ 66651
cạn 68681
Gu@@ 66592
Phú_@@ 66588
Daily_Mail 66581
Sóc_Trăng 66557
hài_hoà 66549
những_ai 66537
Sony 66737
nuôi_dưỡng 66529
ác 69555
tự_xưng 66497
ur@@ 66461
71 66951
An_toàn 66411
trợ_lý 66403
hoàng 74971
đô 100986
nảy_sinh 66382
Ngành 69479
mới_mẻ 66362
Yên 79643
Công_thương 66350
hoãn 71435
thương_tích 66340
tuyển_thủ 66328
Bệnh 91834
phục 143868
Mỹ_@@ 66244
vinh_dự 66235
ập 67627
gác 67409
thư_giãn 66136
Chiến_tranh 66131
vật_dụng 66126
Vị 69128
lên_đường 66120
buôn 72501
Máy_bay 66075
BMW 68059
Vòng 67454
ẩn 74236
PSG 66618
B. 66025
cài_đặt 66010
khoang 67553
mía 66841
’ 65970
dân_tộc_thiểu_số 65966
hoành_tráng 65960
Tu@@ 65958
1975 66350
Si@@ 65949
mi@@ 65918
độ_phân_giải 65916
Mỹ_Đình 65899
thất_nghiệp 65893
Bị_cáo 65840
rải_rác 65836
đồng_bằng 65788
khai_trương 65759
dỡ 68849
quét 68096
trọn_vẹn 65683
Sử_dụng 65681
van 66308
BBC 65984
Chuyên_gia 65647
chăm_lo 65639
6.@@ 65595
Kon_Tum 65581
đối_xử 65578
thể 364570
PTNT 65980
ka 66435
Bạc_Liêu 65548
lên_án 65528
_t@@ 65518
nứt 67621
ngắn_hạn 65507
bắt_gặp 65494
độc_quyền 65445
Làng 67180
ấm_áp 65418
cồn 67966
vứt 66875
nhà_cung_cấp 65384
8.@@ 65371
Liệu 66751
MTV 67637
hô_hấp 65338
đoàn_viên 65324
Hoạt_động 65319
Phút 68532
Thuế 68325
03 66204
Tình 75946
Yến 72074
4,@@ 65210
mì 68473
đổ_bộ 65191
7/@@ 65174
tiểu_thuyết 65129
chứng_cứ 65109
Bến_Tre 65109
CA 67409
Đoạn 66068
Từng 66632
FDI 67453
ig@@ 64947
Mấy 65674
Vĩnh_Long 64938
bất_hợp_pháp 64917
kẹt 67935
Tổng_Công_ty 64864
82 65470
Online 65882
Kết_thúc 64815
rồng 65970
Phố 66688
tồi_tệ 64795
bài_toán 64704
Hiện_trường 64687
triển_vọng 64682
ec@@ 64673
điều_động 64614
La_Liga 64599
công_sức 64589
Biết 65642
p_@@ 64584
Phạm_Thị_@@ 64571
áp_đặt 64562
chữ_ký 64531
09@@ 64529
TQ 65538
tim_mạch 64511
92 64610
scandal 65412
8/@@ 64477
nhặt 66717
hoàn_chỉnh 64450
hu@@ 64437
Libya 66616
Điện 74255
lốc 65070
Sáu 65580
dại 67048
toán 92181
ngưng 68649
Ninh 83327
hoá_học 64341
61 65379
gối 66349
Go@@ 64277
yếu_kém 64264
Colombia 64580
76 65269
Cảng 68718
6.000 65608
NH 64623
nhà_thơ 64176
Món 65265
15% 65759
_P@@ 64103
đấu_trường 64095
cổ_phần_hoá 64058
đun 65532
út 65257
lật 65759
rắc_rối 63926
nông 96691
oan 65541
mũ 66147
xào 64316
giàn 65565
tương_tác 63851
Châu_Á 63848
Điện_Biên 63847
nhường 66939
lực_lượng_vũ_trang 63746
cố_vấn 63669
chiên 64593
Hoàng_Mai 63628
Linh_@@ 63626
az@@ 63620
mùng 64043
xơ 66172
Rooney 63823
thủ_tướng 63541
New_Zealand 63448
bản_chất 63443
and@@ 63434
1,2 64601
tám 64618
Lượng 65144
giản_dị 63346
tiếp_thu 63338
Vladimir_Putin 63322
ưa_chuộng 63291
Dù_vậy 63283
Đức_@@ 63279
ổn 85073
05 64768
36,@@ 63229
2-1 64396
bản_án 63218
công_vụ 63195
7.@@ 63190
xông 64979
me@@ 63172
bảo_tàng 63171
khắc 86573
95 64138
t-@@ 63134
cán 98234
thuỷ 63117
sạch_sẽ 63115
kiểm_toán 63091
Khoản 65777
sản 236319
kiềm_chế 63051
Tiếp_tục 63038
lên_ngôi 63028
nạp 65478
thoả_mãn 62945
nhân_đạo 62933
phái 67825
Đồng_chí 62904
thể_loại 62880
rò_rỉ 62878
xâm_hại 62868
73 63988
CTCP 66110
lan_toả 62772
gợi_ý 62766
Con@@ 62739
ae 62725
nghệ_nhân 62713
3G 62871
ngăn_cản 62702
dung_lượng 62660
thang 68904
khoác_áo 62582
thủ_công 62551
sơ_sinh 62535
trầm_trọng 62526
mưa_lũ 62517
thuận_tiện 62503
86 63066
69 62932
Thanh_Xuân 62447
Hoàng_gia 62433
lau 64548
thể_lực 62417
Vùng 64033
khám_chữa 62384
Huyện 67643
phim_truyền_hình 62328
đột_biến 62322
thoáng 64419
điều_khoản 62275
Bảy 63623
hưởng_ứng 62217
khám_nghiệm 62214
chất_độc 62171
+@@ 62157
gắn_kết 62155
As@@ 62154
vô 102790
6,@@ 62120
diễn_tập 62083
tư_liệu 62065
nhện 62173
ne 61996
kiến_tạo 61950
Ti@@ 61911
é@@ 61855
khe 64107
sắc_đẹp 61849
lắp_ráp 61841
tối_cao 61840
Công_trình 61833
ra_lệnh 61802
Thời 77513
11/@@ 61778
= 62676
sĩ_quan 61700
hẹp 65913
Hương_@@ 61678
sai_sót 61674
thánh 64623
chủ_nghĩa 61656
mật_ong 61654
_D@@ 61627
Ngược_lại 61620
cương_vị 61596
công_thức 61569
Thông 86614
chữa_trị 61562
hố 64450
Cor@@ 61523
mệnh_danh 61522
chủ_quan 61514
chất_béo 61500
góp_ý 61475
hiệu_trưởng 61443
thủ_lĩnh 61428
tâm_trạng 61421
thu_gom 61414
rùa 61773
hành_nghề 61382
tự_ý 61375
Báo_chí 61363
lâm 67521
tận_hưởng 61340
Nguyễn_Đức_@@ 61324
25% 62564
KCN 64640
phán_quyết 61305
Tiểu_học 61206
trình_báo 61201
chủ_chốt 61158
kháng_chiến 61111
77 61770
anh_trai 61079
hi_vọng 61077
ôn 66519
tiếng_nói 61034
cổ_điển 61029
định_kỳ 61023
ăn_mặc 61002
bẫy 64044
hình_phạt 60999
9% 61277
tus 60995
bùn 62955
láng_giềng 60983
rộng_lớn 60978
mười 62590
Com@@ 60950
chứng_chỉ 60941
gặp_mặt 60922
ban_đêm 60898
trùng 67741
âm_mưu 60874
M.@@ 60867
danh_dự 60853
2030 62790
bi 62079
Mon@@ 60745
võ 64246
con_cháu 60721
ấn 77826
set 61916
Mạnh 70542
nhân_chứng 60699
c_@@ 60695
gh@@ 60689
nước_mắm 60682
dự_toán 60680
thắp 61984
per@@ 60674
mỹ_nhân 60671
Nguyễn_Hữu_@@ 60655
khái_niệm 60644
ley 60646
19@@ 60637
còi 62627
phê_bình 60564
đầu_ra 60555
Cựu 62970
Mới 69456
4.0 61437
dễ_thương 60388
tâm_hồn 60387
trụ_cột 60377
Thiết_kế 60366
uỷ_quyền 60363
_T@@ 60354
ers 60345
kê 72564
protein 61955
ic 60315
Long_Biên 60307
NSND 63178
Ba_Đình 60296
2/@@ 60280
vợ_con 60257
phân_bố 60247
màn_ảnh 60231
kỹ_lưỡng 60223
ou@@ 60219
môi_giới 60216
Bình_Phước 60206
cận 79669
vũ_trang 60199
Pi@@ 60174
30/@@ 60134
nhân_tố 60116
Ru@@ 60112
cháo 60879
tiểu_bang 60111
lo_sợ 60078
thửa 62326
ay 60307
rõ_rệt 60021
Phi 67827
Gió 61059
Hollywood 61068
chén 60612
Al-@@ 59961
anh_chị 59955
1000 60673
Cầu_thủ 59952
lão 62304
bùng_phát 59885
op@@ 59884
chắn 69599
Đan_Mạch 59806
lời_nói 59789
ANTĐ 59803
máy_ảnh 59749
bình_yên 59684
lấn_chiếm 59633
il 59609
CT 59768
Duy_@@ 59587
Chẳng 61908
tốn_kém 59572
04 60141
79 60785
thìa 60580
Máy 62701
luyện_tập 59487
ang@@ 59487
sứ 72388
thiếu_nhi 59457
Ki@@ 59456
Mu@@ 59441
ngoài_trời 59432
hé 61187
Hoàn_vũ 59400
gốm 60476
Te@@ 59371
ướp 60047
đùa 61613
lưỡi 60975
Khanh 59716
Phát 82078
Tây_Ninh 59297
má 61397
SV 59871
25@@ 59267
Hai_Bà_Trưng 59261
Thầy 60448
Lee 66439
74 59767
EVN 59751
tên_lửa_đạn_đạo 59228
Saudi_Arabia 59221
kiểm_định 59207
Tam_@@ 59184
Thiên 67447
báo_giới 59174
chán 61329
viện_trợ 59144
tầng_lớp 59118
mâm 60319
Ad@@ 59101
1988 59368
nhãn_hiệu 59089
Đàm_Vĩnh_Hưng 59067
Công_đoàn 59067
Pa@@ 59049
nhiễm_trùng 59001
riêng_tư 58966
Thống_kê 58929
ate 58920
sơ_tán 58882
tâm_huyết 58881
vào_vai 58875
Giống 60080
chăm_chỉ 58824
thần_tượng 58756
chủ_lực 58750
đúng_đắn 58733
đến_nơi 58729
tưới 61424
bí_quyết 58711
Tiên 66924
lý_thuyết 58657
2-0 59878
Thủ_Đức 58638
V. 58637
1989 58801
kim_cương 58526
Thay_vì 58523
mệt 63227
Old_Trafford 58504
5,@@ 58434
bầu_trời 58412
ưu_thế 58392
9/@@ 58326
RAM 59131
điệu 63488
Chàng 59215
tắc 72275
axit 59690
hoang_dã 58240
đội_trưởng 58228
lượt_đi 58223
pi@@ 58221
hiện_thực 58219
Crimea 59333
khoáng_sản 58169
tư_pháp 58148
Thiếu_tướng 58143
Pro@@ 58143
cải 84138
golf 58570
coi_trọng 58110
Tạp_chí 58108
thảo 76827
Đông_Nam 58106
con_em 58099
Dòng 59299
Thiện 64690
kiểm_điểm 58076
đa_khoa 58073
Khoa_@@ 58071
Thí_sinh 57978
em_trai 57933
xám 59041
3,5 58951
con@@ 57821
ca_hát 57818
đoàn_thể 57804
Cận_Bình 57781
trực 122682
Trinh 61442
ts 57766
Quy_định 57754
hiện_đại_hoá 57754
84 58306
khủng_khiếp 57718
sụt_giảm 57704
ani 57694
Hoài_Linh 57661
83 58111
Không_thể 57633
tín_nhiệm 57613
đại_hội 57589
Vợ_chồng 57588
giải_trình 57559
Ca_sĩ 57554
quả_tang 57542
Nghệ_thuật 57535
nhà_nghỉ 57532
cu@@ 57531
Bộ_luật 57523
nhôm 59363
ngoại_tình 57506
Bố 59758
chỉnh_sửa 57458
chăm 81600
nghệ 126550
động_tác 57401
Lao_Động 57396
ròng 59537
Mc@@ 57380
Sơn_Tùng 57354
ko@@ 57329
dự_bị 57309
thị_trường_chứng_khoán 57299
Rõ_ràng 57271
sư_phạm 57259
Lấy 59020
Ri@@ 57226
Instagram 58943
tử 114594
hoa_hồng 57184
ah@@ 57157
cố_ý 57151
địa_hình 57105
lai 71171
Thuý 57075
Tỷ_lệ 57037
kích_hoạt 57035
vú 58623
quy_tắc 57021
dây_chuyền 57014
TH@@ 57005
cưng 63137
Thượng 64612
giới_chức 56950
YouTube 58522
ngọc 58151
sa_thải 56938
Chứng_khoán 56934
Kar@@ 56919
_K@@ 56910
vừa_rồi 56885
mặt_nạ 56883
công_chúa 56877
XII 57916
vĩ_đại 56856
cư_trú 56831
xay 57994
mơ_ước 56809
phát_ngôn 56791
hữu_ích 56785
Pe@@ 56774
vắng_mặt 56764
làng_nghề 56750
Công_việc 56733
đánh_bạc 56731
nhiệt_đới 56701
cổ_truyền 56700
kế_toán 56657
QH 56684
Cấp 59593
ru@@ 56582
sống_sót 56558
Chiến_lược 56540
kháng_sinh 56535
1.0@@ 56526
mạo_hiểm 56513
trước_hết 56500
ĐBSCL 57216
nắp 58171
lún 58161
300.000 57334
ngày_mai 56362
PGS 56696
VND 56849
Nguyễn_. 56316
cứu_trợ 56314
78 57012
Hợp_tác 56304
làn_sóng 56282
vực 157319
cỗ 58554
chăn 66941
Đà 82276
Khang 57830
nhà_ga 56202
Phúc_@@ 56200
AC 56718
muỗi 58110
bận 59946
địa_phận 56163
thềm 57053
9X 57654
gian_hàng 56126
hoạ_tiết 56117
hàng_rào 56117
duyệt 65737
danh_tính 56072
Đang 56882
vừa_phải 56025
Tân_Sơn_Nhất 55976
hồn 59965
w 55916
sư 73464
gas 56323
Nhà_báo 55873
Cháu 56780
City 62903
gia_cầm 55850
mờ 57832
doạ 55838
hoa_quả 55824
rước 56476
thủ_thành 55799
đèo 56558
XH 55841
giao_hữu 55746
triều 58240
xếp_hàng 55736
5-@@ 55733
vũ_khí_hạt_nhân 55723
FA 55964
Ninh_Thuận 55698
PVN 55817
Giọng 56537
vạch 57717
vi 131716
làm_quen 55635
kiên_trì 55630
sexy 56288
ve 56015
ATGT 56579
PGS.TS 57173
Căn_cứ 55597
n-@@ 55565
lõi 59024
nhân_văn 55551
cầm_quân 55544
tủ_lạnh 55524
Mời 56024
gầm 56630
ra_quân 55443
Hậu_Giang 55410
al_@@ 55406
danh 98337
khuôn_viên 55386
phê_chuẩn 55368
Cụ 75276
nhân_dịp 55361
.vn 55361
xâm_phạm 55301
mày 57621
ard 55289
vinh_danh 55251
car@@ 55215
lốp 56915
quốc_tịch 55139
kháng 64696
thảm 59684
Trẻ 57694
Học 61808
liên_bang 55111
gen 56705
người_tình 55097
Bayern 57602
mar@@ 55067
trung_thành 55053
Dự_thảo 55041
Khánh_@@ 55018
quan_ngại 55012
tô 75096
lăn 58252
tức_giận 54959
đơn_thuần 54940
thành_quả 54908
Trang_@@ 54906
Mor@@ 54897
Bởi_vậy 54895
thăm_hỏi 54886
tâm_thần 54881
Lai_Châu 54880
bản_sắc 54878
siết 56302
tích 148679
du_học 54840
vặt 55935
cài 57311
thị 181620
Jo@@ 54737
điều_tiết 54735
mu@@ 54721
Lam 60999
cò 55535
08 55017
BĐBP 55338
sinh_sản 54688
1982 55265
IV 56298
Phước 61291
cong 61918
ak 54615
tín_đồ 54603
dũng_cảm 54603
phúc_thẩm 54603
30@@ 54595
góc_độ 54555
chiều_tối 54518
tội_danh 54507
cà_chua 54506
thiện 82505
lon 54778
chóng_mặt 54472
Nhung 56695
khắc_nghiệt 54425
87 54910
tiểu_đường 54396
11.@@ 54376
cao_tuổi 54374
be@@ 54371
tạ 55084
Cửu_Long 54334
dưa 57071
ruồi 54856
10.@@ 54276
TH 54479
Ban_Chấp_hành 54258
Bác_Hồ 54228
Ke@@ 54215
cô_đơn 54201
Nhật_@@ 54191
nhà_vệ_sinh 54190
Tiểu_@@ 54171
HD 54307
chua 58678
1-1 55325
Miền 56064
gu@@ 54052
chiến_đấu_cơ 54052
ván 55996
liên_ngành 54019
der 54014
in_@@ 54000
ri 54375
ống_kính 53960
pháo_hoa 53958
Thông_qua 53945
ơn 60196
TT@@ 53925
cất_cánh 53907
1986 54410
Miura 53946
tử_cung 53867
Nạn_nhân 53847
Sal@@ 53797
24@@ 53790
Tiền_Phong 53749
Hồ_@@ 53746
sổ_đỏ 53736
En@@ 53710
bộ_đội 53706
màng 55733
one 53693
bơ 54794
Danh_sách 53632
tước 55201
Chile 53995
luyện 70352
giấc_ngủ 53613
phân_bổ 53607
đa_phần 53602
23@@ 53600
Manchester_United 53598
rào_cản 53585
lan_truyền 53554
40.000 54656
cũng_nên 53521
bộ_môn 53499
dị_ứng 53493
quầy 54717
Tăng_cường 53490
Dầu_khí 53413
Hạ 59583
Chuyến 54583
Mal@@ 53373
Per@@ 53340
trẻ_con 53340
siêu_mẫu 53317
Thừa_Thiên 53285
loại_trừ 53266
đường_ống 53262
Biển_Đông 53262
W 53360
thông_tấn 53226
khung_thành 53214
Hiến_pháp 53209
thủ_đoạn 53196
Jong-un 53830
bất 127666
đảm_nhiệm 53182
ngày_đêm 53159
chốn 54516
Biên_Hoà 53140
thèm 54049
hội_viên 53110
giảng 59926
vách 53943
7.000 53810
ki 53159
20/@@ 53065
văn_nghệ 53033
Nhằm 54588
vĩ_mô 53017
gìn_giữ 52982
tán 60490
mặt_nước 52963
kề 54262
Hiển 54746
nghệ_sỹ 52921
ghi_hình 52908
S. 52899
K. 52897
Khách 55686
bất_đồng 52869
giúp_việc 52860
nhà_phân_tích 52817
Đánh_giá 52803
tổn_thất 52787
phối 99974
thể_chế 52732
san 55764
Nằm 53919
81 54495
xã_hội_hoá 52655
Cúc 54610
Sư_phạm 52640
kẻ_thù 52637
st@@ 52633
Ab@@ 52628
dần_dần 52627
chuyên_đề 52589
mịn 54066
ứng 129287
ý_chí 52549
Ngoại_hạng 52549
Thế_@@ 52530
sưng 54660
định_giá 52499
350 53783
cơ_động 52451
ồn 54676
vân 54111
xinh 61475
Hán 54818
bế_tắc 52281
TW 52452
truy 65538
khiêm_tốn 52216
tích_luỹ 52216
tháo 61452
Chùa 53337
cãi 59470
khởi_kiện 52192
cấp_độ 52191
go@@ 52185
hứng 61035
Huệ 55474
UNESCO 54267
rẽ 54486
họng 53848
A.@@ 52128
bất_lợi 52093
phong_thuỷ 52081
Đào 62575
15.000 52593
hái 54446
Hoá 52010
8.000 52674
bước_tiến 51959
cho_nên 51954
xổ_số 51947
cuộc_gọi 51936
Sputnik 52397
Thông_thường 51905
Phật_giáo 51895
1/3 52680
lỏng 56550
tháo_dỡ 51868
Ku@@ 51861
Amazon 52939
nhận_lời 51812
pro@@ 51797
ber@@ 51786
nấu_ăn 51784
sụp_đổ 51764
cao_tầng 51764
đầu_bảng 51748
Nam_Bộ 51729
cầm_quyền 51728
thầy_giáo 51726
người_phát_ngôn 51723
89 52557
3-@@ 51699
buông 53543
nén 52897
Tin_tức 51661
ko 51716
kiểu_dáng 51617
thi_tuyển 51600
tang_vật 51599
ngữ 59847
trong_sáng 51543
Tuần 54304
Kurd 51563
Tuyên_bố 51493
DL 52122
ce 52363
xoáy 51889
ốm 53870
nhận_diện 51457
cập 69871
A-@@ 51430
lưu_niệm 51428
bún 52727
trầm_cảm 51389
Oscar 52336
USS 56370
biên 81916
tạo_hình 51337
tivi 51790
VN@@ 51287
lớn_tuổi 51279
Hoà_@@ 51279
1987 51555
sân_vận_động 51256
San@@ 51225
Vân_@@ 51199
HTC 51337
Nữ_hoàng 51177
gia_súc 51176
Khác 52584
nho 54372
suy_thoái 51162
Nghệ 64965
vớt 52391
khía_cạnh 51126
tuyển_chọn 51116
00@@ 51111
sỏi 52211
nước_ngọt 51108
Xuân_Trường 51090
bảo_dưỡng 51079
Yên_@@ 51067
ngỡ_ngàng 51066
đồng_tính 51065
_V@@ 51035
lề 53047
1970 51245
web 53298
Bayern_Munich 51003
Intel 51390
110 52682
Đô_thị 50990
xinh_xắn 50974
Pháp_luật 50958
tiên_phong 50933
alis 50930
Đền 51569
Giáng_sinh 50911
muỗng 51592
biến_chứng 50877
xoá_bỏ 50874
tất_nhiên 50834
Thịt 51816
linh_kiện 50788
Thạch_@@ 50788
Thay 55258
nhà_chức_trách 50727
91 53899
Xanh 53580
Sinh_viên 50690
Thi 54391
cuốn_hút 50688
lưu_lượng 50676
cấu_hình 50671
bắt_mắt 50664
chảo 51411
sơ_bộ 50641
táo_bạo 50637
tưởng_niệm 50630
Vài 51732
đau_khổ 50588
Tiến_@@ 50566
kiến 123563
rong 51407
2-@@ 50538
bê_bối 50526
Tuấn_@@ 50522
sinh_vật 50518
soạn_thảo 50488
Kỳ_Duyên 50460
chấn_chỉnh 50434
Ni@@ 50417
ini 50416
nồng_độ 50415
thuỷ_lợi 50410
hiệp_định 50406
Đơn_vị 50367
hàm 53998
công_cuộc 50339
thoái 55335
xoắn 51896
93 50530
lâu_nay 50264
mại_dâm 50245
on_@@ 50234
hội_đàm 50233
hiện_vật 50224
thác 68036
Diễn_viên 50207
CAND 51048
Định 59573
V.League 52534
rạng_rỡ 50192
nhạt 52149
Nghệ_sĩ 50156
ĐBQH 50405
Phát_hiện 50154
đặt_chân 50154
phá_hoại 50152
tài_tử 50152
Bốn 50892
tho@@ 50099
V.@@ 50065
hoan_nghênh 50056
96 50732
mắc_kẹt 50031
thua_lỗ 50018
ena 50007
Hy@@ 49981
dặm 50521
ngừng_bắn 49963
phong_toả 49961
e-@@ 49941
cản 60301
chu_đáo 49931
Trần_Đại_Quang 49925
QL@@ 49917
giòn 50865
mi 51470
lường 52213
Thống_Nhất 49879
ong_@@ 49876
Hoặc 50972
công_đoàn 49853
bổ 77902
mà_lại 49835
Cao_đẳng 49812
Quảng 81184
phẩm_chất 49789
thông_số 49788
HN 49840
đương_nhiên 49772
ế 50263
dê 50224
chào_mừng 49733
bày_bán 49715
bìa 50891
Triệu_@@ 49668
VPF 50069
lus 49594
tis 49587
Kinh_doanh 49585
ương 77203
trả_giá 49563
học_hành 49546
Ngôi_sao 49489
sếp 50147
bảo_hộ 49478
bộ_trưởng 49477
rụng 52097
thiết_yếu 49458
ca_ngợi 49436
Cao_Bằng 49435
bắt_nguồn 49430
nghĩa_trang 49411
tem 49762
tối_ưu 49390
cáo_trạng 49374
dịu_dàng 49344
huỷ_bỏ 49327
cổ_động_viên 49314
by 49598
C.@@ 49276
suy_yếu 49272
đều_đặn 49251
kết_cấu 49244
lập_công 49238
12.@@ 49227
AS 49455
laptop 49999
hiếm_hoi 49200
bài_bản 49197
ah 49173
nhẫn 52071
Anh_@@ 49116
sương_mù 49101
sử 149216
Đôi 50516
bề 53836
Suốt 49937
nguyện 63012
1945 49217
địa_lý 49045
Phần_lớn 49036
ngày_xưa 49011
Nhân_dịp 48995
leo_thang 48986
tri@@ 48974
phần_tử 48954
7,@@ 48923
Cu@@ 48916
Bi@@ 48906
khối_u 48903
Thành_@@ 48896
ea 48892
chú_rể 48879
khen_thưởng 48878
130 50416
Tiền_vệ 48835
1985 49603
hối_lộ 48810
túi_xách 48803
Thượng_Hải 48779
bày 66204
Yemen 48873
ĐB 49233
cho@@ 48742
phì 50637
Ag@@ 48705
gam 50528
06 49175
180 49752
tuyên_phạt 48640
TNO 48635
Quỹ_@@ 48630
đè 49820
luôn_luôn 48602
minh_chứng 48593
hôi 52600
sâm 49112
tra 123760
B.@@ 48495
ver@@ 48483
ATM 48814
Jordan 48773
L.@@ 48425
đếm 49871
Ba@@ 48401
trở_ngại 48400
Thu_@@ 48392
Thừa_Thiên_Huế 48388
hữu_cơ 48366
hiệu_suất 48363
khí_đốt 48363
sâu_rộng 48356
hạt_giống 48340
xu_thế 48337
Ukraina 48484
ad 48326
Group 50821
y_học 48302
xứ_sở 48295
thiếu_nữ 48286
giật_mình 48277
4G 49063
điên 49269
mầm 55625
truy_nã 48236
karaoke 49483
quần_chúng 48182
ung 56833
Đứng 49364
ngần_ngại 48165
LĐLĐ 49912
tuyên 82405
á@@ 48146
chảy_máu 48144
Bangkok 48426
Vietnam_Airlines 48120
quyền_hạn 48117
dọn_dẹp 48102
biệt_danh 48101
riêng_biệt 48083
nhà_tài_trợ 48076
Bóng_đá 48071
dày_đặc 48045
Can@@ 48044
trúng_tuyển 48043
Chiến_dịch 48028
rễ 49203
thư_viện 48018
Sự_kiện 48017
đặc_nhiệm 48011
Chúc 48752
aria 48009
Quảng_@@ 47996
khí_thải 47988
đại_sứ 47986
hoà_giải 47984
giãn 56252
Anh_Tuấn 47955
thế_chấp 47951
sim 48595
Nguyễn_Đình_@@ 47916
Hungary 48097
Cas@@ 47904
ham 49117
Tiền_đạo 47880
ký_ức 47870
ly@@ 47857
nhận_biết 47851
lưu_hành 47848
cưỡng_chế 47845
liệt 59714
Chỉ_thị 47835
chính_đáng 47831
lệch 53086
cảm_ứng 47821
Ánh 50538
thuỷ_thủ 47784
nguội 48576
khuya 48698
chỉnh 71637
mini 49008
Chi@@ 47765
bảo_trì 47747
chửi 49606
xách 50837
Trà_Vinh 47707
tái_tạo 47699
Bitcoin 48100
tình_tiết 47686
ghét 49350
Nội_Bài 47678
tinh 87390
phản_cảm 47671
Ha@@ 47639
Tướng 48120
98 49188
Bàn 49824
phở 49142
Thường 67475
thủ_phạm 47539
Boeing 47811
Aleppo 47625
tác_hại 47513
giận 51339
e_S@@ 47512
gấu 48466
chuyển_hoá 47453
09 47708
phải_biết 47437
trang_sức 47426
quý_giá 47417
ti 48920
Đầu_tiên 47379
par@@ 47374
quay_phim 47369
Sống 48103
chiến_sỹ 47315
thu_hẹp 47305
an_sinh 47296
tra@@ 47288
khả_quan 47284
tiêm_kích 47277
Liên_hiệp 47255
chương 92132
com@@ 47238
tro 53559
khánh_thành 47231
cánh_tay 47227
Chính_trị 47205
ca_nhạc 47202
.vn. 47200
thỉnh_thoảng 47185
Quân_khu 47182
hit 48159
vô_số 47170
chìa_khoá 47150
Giang_@@ 47149
xa_lạ 47145
dầu_mỏ 47131
ica 47118
Trái_đất 47086
phá_sản 47085
da@@ 47083
kênh_truyền_hình 47049
tăng_tốc 47034
kỳ_hạn 47033
Ac@@ 47030
Di_sản 47027
nhiếp_ảnh_gia 47024
bú 48107
giao_diện 46983
Thống_đốc 46966
id 46965
Tuyên_Quang 46939
tràn_lan 46886
Quỳnh_@@ 46879
Đạo_diễn 46875
Ly 48260
Tăng 53928
kéo_theo 46759
trí 102865
cảnh_giác 46743
lặp 49009
Yêu 49699
mặt_trận 46716
khuyết_điểm 46712
Quy_Nhơn 46682
dược 56557
bí 58528
Sau_này 46632
Na_Uy 46627
Thơ 49496
ing@@ 46604
1-0 48849
% 47456
SHB 48803
Clinton 46704
trách 82758
tả 51297
mốt 47780
mô_tô 46561
Liên_@@ 46560
Á 64393
Lịch 49838
Chỉ_số 46504
song_song 46502
Cộng_sản 46487
đùi 48124
tỉnh_táo 46469
Cẩm_@@ 46469
Nghi 50368
La 58452
lượt_về 46462
ino 46435
Học_sinh 46430
tiện 71460
năm_tháng 46413
aw@@ 46389
quý_hiếm 46369
du 110989
31/@@ 46308
một_ít 46292
Cương 47341
bin 46607
phát_ngôn_viên 46229
Giai_đoạn 46222
đại_dương 46207
tuổi_trẻ 46199
Man_Utd 46180
LED 47380
đường_kính 46167
Cá 49039
nh 46221
hợp_nhất 46144
lục_địa 46144
BIDV 50929
xi_măng 46097
Tim 46824
chiêu_mộ 46090
tỉnh_thành 46087
tri_ân 46002
tàu_thuyền 45987
giây_phút 45969
que 47641
VKSND 49970
Tham_gia 45949
phòng_khám 45941
CH@@ 45941
biên_phòng 45938
nhà_trọ 45923
Phiên_bản 45918
ưu_điểm 45915
bộc_lộ 45910
thao_tác 45896
ca_sỹ 45873
Nguyễn_Phú_Trọng 45855
Thuỷ_@@ 45854
Nguyễn_Thanh_@@ 45847
ăn_mừng 45843
đụng_độ 45832
lộc 48266
ly_khai 45807
liên_doanh 45788
hư 49527
tổn_hại 45750
ư 46128
ai@@ 45724
Chính_sách 45720
Hạ_viện 45719
tẩy 48748
xe_ôm 45702
nghị_sĩ 45680
sôi_nổi 45667
Bình_Thạnh 45656
7-@@ 45634
côn_trùng 45634
1A 46060
không_thể_nào 45606
Thân 48556
chuyển_động 45593
dồi_dào 45589
Hình_sự 45589
tiếc_nuối 45587
TPO 45597
Đen 46120
cường_quốc 45573
mạnh_dạn 45571
Kiều_@@ 45571
đắng 46588
Tây_Hồ 45538
Đảo 50108
lầm 50256
bản_địa 45508
ni 46273
soi 47686
Cha 46828
pp@@ 45457
Chương 57761
Sách 46545
RT 45561
un 45597
năm_tuổi 45411
trào_lưu 45396
Hành_động 45383
mù 47975
chào_bán 45369
mới_lạ 45366
Cộng_đồng 45348
Tân_Bình 45323
chiêm_ngưỡng 45302
Chân 47054
Her@@ 45294
Cán_bộ 45291
vấp 46441
tập_thể_dục 45283
CS@@ 45277
sướng 46159
Vietcombank 46925
Mas@@ 45258
bikini 45953
8-@@ 45235
Phạm_Hương 45231
He@@ 45228
xuống_đường 45223
Bạch_@@ 45209
quen_biết 45208
thất_thoát 45208
đề_phòng 45195
làm_giàu 45191
chọn_lựa 45177
nguy_kịch 45175
quốc_hội 45167
xấu_hổ 45161
ke 45220
bảo_lãnh 45127
hẻm 46574
lâu_đời 45117
Lập 47552
VN-Index 47327
9,@@ 45100
nhà_đất 45092
trung_thực 45089
đầu_vào 45030
liveshow 45089
Khách_hàng 45018
hội_tụ 45013
Youtube 46380
C-@@ 44977
Núi 46999
họ_hàng 44950
Thượng_viện 44949
toàn_thể 44949
tàn_phá 44916
tiêu_huỷ 44912
Trái_Đất 44902
sóng_gió 44898
8,@@ 44894
nhái 45447
đồ_hoạ 44890
lục 59719
dắt 48822
mở_màn 44868
Tuyết 46888
tion 44840
man@@ 44838
thể_dục 44837
Số_lượng 44836
1960 44940
đế 51180
ell@@ 44772
Z 45383
_l@@ 44760
suýt 45942
Ber@@ 44727
Chợ 50043
điển_trai 44725
Cal@@ 44725
thiệt_thòi 44709
pe@@ 44693
cởi_mở 44675
tụ_tập 44647
tâm_linh 44636
tân_binh 44635
Chú 46549
khuyến_mãi 44613
ướt 45775
Phước_@@ 44584
vùng_cao 44575
29@@ 44574
thương_lái 44563
hầu 70278
canh_tác 44556
hiếp_dâm 44548
Moskva 44793
thế_trận 44532
4-@@ 44517
háo_hức 44516
phu_nhân 44514
sét 46902
đệm 46470
thanh_lịch 44492
hình_tượng 44488
môn_học 44482
bóc 45832
19/@@ 44458
nêm 44791
Đ 44866
Hỗ_trợ 44433
xẻ 45828
giờ_địa_phương 44421
âm_lịch 44420
chuẩn_mực 44413
bộ_binh 44403
thai_nhi 44399
hoạ 44397
đau_lòng 44390
nghiêm_ngặt 44370
nốt 45640
bánh_mì 44298
the@@ 44287
dung_tích 44274
bền 56756
USB 44395
1984 44500
ent 44204
đặc 107780
nhân_loại 44202
tốp 44979
búp_bê 44193
kẹo 44888
Tường 47482
3-4 44841
bus 44259
Ngày_nay 44145
gạt 44768
Vietlott 44567
Giờ_đây 44108
chủ_nhiệm 44102
St@@ 44090
MobiFone 45412
đến_nỗi 44075
Triều 50174
| 44251
Ju@@ 44041
lót 45182
cứu_hoả 44019
du@@ 43994
thầu 57262
lão_hoá 43950
tự_sát 43945
thế_lực 43930
Tp. 43937
canxi 45127
Nguyên_liệu 43914
võ_thuật 43898
rung 46170
đắt_đỏ 43889
chuồng 44818
07 44209
tố_tụng 43873
vọt 46323
li 44780
nước_nhà 43863
Bệnh_nhân 43824
số_ít 43783
Cho@@ 43772
Ta@@ 43765
Càng 44696
land 43759
teen 44264
cầu_vượt 43729
thon 45829
94 44117
đục 45941
quân_nhân 43657
Lee_@@ 43657
dịu 46109
ca@@ 43603
pháp 155703
Độ_ẩm 43585
vội_vàng 43583
Huân_chương 43579
Vị_trí 43564
Nguyễn_Xuân_@@ 43562
sân_cỏ 43556
vậy_mà 43556
dòng_chảy 43534
Đồn 46714
VI@@ 43492
_R@@ 43436
khỉ 46905
Giám_đốc_điều_hành 43420
ừ 43518
Phùng_@@ 43411
Trời 44225
thuyền_trưởng 43397
S-@@ 43395
Vốn 44465
tiện_lợi 43363
gai 44470
Mối 44447
J 43665
sáng_tỏ 43354
NH@@ 43344
quyển 44375
nhà_tù 43319
rút_lui 43318
tử_hình 43314
au 43355
giả_mạo 43306
kích 66574
hoá_thân 43288
trung_học 43279
xúc_phạm 43278
âm_thầm 43253
tái_hiện 43242
dự_luật 43236
Bà_Rịa 43235
lắc 44975
ari@@ 43235
Roma 43558
tui 45016
kì 48841
Độ 71059
97 43837
truyền_tải 43150
NXB 43543
rể 43929
125 43518
điểm_số 43128
NTK 45192
Mông 46096
vương_miện 43102
Thuỷ_Tiên 43083
40@@ 43061
Ra@@ 43058
Bắc_Mỹ 43054
ô@@ 43052
25/@@ 43049
ngh@@ 43048
gót 44010
ban_ngày 43019
era 43013
ler 42984
For@@ 42972
Lại 44624
kè 44079
cường_độ 42959
Sự_nghiệp 42958
Thượng_@@ 42956
Đời_sống 42913
nuốt 43654
ck 42890
lọ 43927
quyền_sở_hữu 42885
khán_đài 42884
lây_lan 42879
Thông_báo 42879
Ros@@ 42867
kỹ_thuật_số 42849
kỷ 75025
dở 44738
Chiến_thắng 42825
LĐ 43501
khuyến_mại 42808
tor 42807
bảo_hiểm_y_tế 42805
tuổi_thọ 42793
thiếu_hụt 42786
ff@@ 42760
ND 42778
tiểu_thương 42739
nổ_súng 42737
ck@@ 42735
bấy_giờ 42728
é 43078
hiện_hữu 42680
Wenger 42676
tình_cờ 42663
for@@ 42640
Phong_@@ 42628
Vẻ 43417
Nhà_văn 42604
AN 42818
Tối_cao 42592
nghiêm_khắc 42584
vận_dụng 42580
Phóng_viên 42576
tiến_triển 42573
it 42635
văng 44067
Duyên 43831
Tư_lệnh 42544
ấn_định 42543
nhậm_chức 42514
QĐ-TTg 42491
VOV.VN 42484
Căn 46043
160 43100
lật_đổ 42445
sex 42759
Sơn_Trà 42433
bảo_hành 42426
hoà_nhập 42423
mạch_máu 42417
HP 42659
cốt 46583
nhà_giáo 42387
Zing 43149
1979 42464
ngoại_ô 42347
nhọn 44123
Đoàn_@@ 42298
đường_thuỷ 42297
đinh 43494
quỳ 42992
Thương_binh 42268
Ge@@ 42265
LS 42744
ba@@ 42247
TR@@ 42235
sót 46364
ay_@@ 42166
ngôi_vị 42151
định_vị 42132
1.200 43078
Sp@@ 42117
Vừa_qua 42109
af@@ 42096
trung_gian 42088
end@@ 42079
lụa 43030
Tình_yêu 42066
tao 42566
bế 45130
ano 42034
Xét 43378
Hưng_@@ 42030
ens 42028
lỗ_hổng 42018
thân_mật 42002
Cristiano_Ronaldo 42000
ưa_thích 41997
lặng_lẽ 41986
Hôm_qua 41984
đương_kim 41942
Cửa 45230
sách_giáo_khoa 41936
SIM 42518
VietNamNet 42251
Bor@@ 41873
hành_hung 41873
EC 41875
Bình_Chánh 41848
ner 41841
núi_lửa 41827
sốt_xuất_huyết 41827
tù_nhân 41824
cổ_tức 41813
xoài 42616
6-@@ 41806
TPP 41835
óc 42718
hấp_thụ 41785
lộng_lẫy 41768
16/@@ 41754
ếch 42299
sư_tử 41734
nữ_tính 41732
tương_đồng 41732
vật_tư 41730
Tư_vấn 41724
bại 51959
Croatia 42193
huyết 51495
eg@@ 41700
dầu_thô 41694
Con_số 41689
chu_kỳ 41682
bè 49456
sứ_mệnh 41652
hoang 47618
Everton 43104
chuyên_dụng 41629
Công_văn 41628
Tuần_lễ 41628
chí 106395
VCK 41892
quyên_góp 41607
Sch@@ 41602
Nhã_Phương 41599
hoả_hoạn 41598
ara 41589
đột_nhập 41580
Uống 42728
trễ 43378
khung_cảnh 41565
khai_báo 41561
đồ_đạc 41553
Hiệp_ước 41549
MP 41856
hiện_trạng 41528
tân_@@ 41513
tro@@ 41496
kích_cỡ 41491
thô 46743
tát 43715
Quang_Trung 41479
9.000 41927
Kết_luận 41458
La@@ 41455
Jose_Mourinho 41445
28/@@ 41419
AIDS 41499
Hoàn 47000
hình_dáng 41357
Giao 48980
My@@ 41348
tạo_dáng 41345
bạo_hành 41344
bình_ổn 41328
tri_thức 41313
Min@@ 41298
móc 44476
thể_chất 41259
vành_đai 41236
EURO 41590
Tô_@@ 41219
nuôi_trồng 41215
Phần_Lan 41207
bỏ_hoang 41190
ine_@@ 41186
Phiên 43184
công_dụng 41162
nọ 41849
Nam_Mỹ 41150
rách 41541
tràn_ngập 41136
tu 45737
Tông 41879
bao_lâu 41099
chứng_từ 41083
27@@ 41081
14/@@ 41079
đốc 79497
ey 41071
khoai_tây 41057
Tây_Nam 41049
vừa_mới 41048
phấn_khởi 41027
thuyền_viên 41025
mon@@ 41020
quán_triệt 41012
cấp_bách 40999
ik@@ 40980
Đắk_Nông 40968
tàng_hình 40962
1968 41115
ent@@ 40955
quán_quân 40953
bình_dân 40946
FLC 42158
CH 41032
_F@@ 40923
kíp 43541
nhát 41856
Hợp_đồng 40910
Nigeria 41311
nhầm_lẫn 40899
đề_cao 40875
con_giáp 40875
Du_khách 40861
0% 42115
lội 43364
or 40857
loạn 45642
cởi 42453
Or@@ 40839
95% 41949
công_đoạn 40803
Ver@@ 40799
ml 40921
Q.@@ 40790
nhỏ_bé 40784
Km 41124
giam_giữ 40776
AN@@ 40723
bù_đắp 40720
cục_bộ 40695
do_vậy 40693
Berlin 41349
Oanh 43180
thiên 60130
tổng_giám_đốc 40673
Anh_hùng 40656
q@@ 40621
1,3 42103
lôi_kéo 40600
phản_công 40591
One 41219
1972 40711
4,5 41783
ngoạn_mục 40541
Luân 41730
chùm 41110
1983 40626
kháng_cáo 40492
nhuộm 41262
quy_chuẩn 40458
cô_lập 40449
nhà_hát 40442
CIA 40545
My 43883
_Đ@@ 40430
đụng 47547
May_mắn 40420
thương_mại_điện_tử 40393
Tổng_thư_ký 40384
đánh_đập 40384
diện_mạo 40366
tứ 43097
Mạnh_@@ 40348
Tổng_@@ 40346
lưu_trú 40341
đóng_tàu 40339
trăn_trở 40338
chân_dung 40315
va@@ 40314
cứng_rắn 40312
thương_vong 40266
9-@@ 40262
đường_lối 40260
phát_tán 40244
Huyện_uỷ 40233
Bộ_đội 40231
gió_giật 40230
gậy 41875
gom 43484
đệ 41421
mất_mát 40225
eri 40224
uỷ_ban 40212
danh_hài 40197
Bal@@ 40180
ngu@@ 40175
Ireland 40861
‘ 40163
bệnh_nhi 40155
len 40825
Bởi_vì 40124
nhà_quản_lý 40110
chèo 40864
tiếp_viên 40091
Tấn 44695
18/@@ 40077
giải_đáp 40058
Long_Thành 40055
ngài 43005
có_điều 40033
thạc_sĩ 40031
ghen 41698
xôi 41071
chính_trị_gia 40012
Trải 41230
đàn_em 39985
hoả_lực 39981
xuất_nhập_khẩu 39977
CT@@ 39952
os 39952
Thực_ra 39949
ati@@ 39948
lẻ 48245
ưa 43019
Thạch 42618
re 42559
thiêu 40717
38@@ 39878
NTM 41454
chị_gái 39870
tinh_vi 39867
Chỉ_huy 39861
ai_@@ 39842
ounce 39867
toạ_đàm 39826
ft 39854
S.@@ 39820
Đông_Bắc 39800
thuần 43528
thích_ứng 39793
duyên_dáng 39787
ranh_giới 39778
đắc_cử 39777
tỉa 41174
Hoàng_tử 39773
U20 39943
35@@ 39728
đẫm 40849
bảo_hiểm_xã_hội 39702
ĐTQG 40086
cấp_nước 39676
phà 51103
quy_tụ 39670
trình_làng 39662
thảm_đỏ 39658
đôn_đốc 39653
Hướng 41888
tụt 42093
biểu_dương 39635
Đọc 40165
ưu_ái 39614
Nhớ 40336
ngoan 41520
chuyển_hướng 39598
trung_cấp 39590
sụt 43668
Inter 41121
ez@@ 39566
ali@@ 39564
Trọng 47030
Danh 43959
đường_bay 39548
sinh_động 39546
2021 46528
lướt 40902
chung_cuộc 39521
2025 43714
26/@@ 39508
Bạch_Mai 39505
kinh_điển 39500
sức_sống 39495
Brexit 39573
thống_trị 39480
Nhân_viên 39479
Tuyên_giáo 39474
Van_Gaal 39458
Điển_hình 39458
Quá 43341
00 39508
thương_binh 39447
Ham@@ 39428
phân_chia 39427
cự_ly 39424
TNGT 40141
đa_năng 39398
ve@@ 39389
tiện_nghi 39385
ghi_nhớ 39384
tan@@ 39384
bệnh_lý 39380
ý_muốn 39376
F-35 40072
dư 53776
22/@@ 39362
bất_lực 39358
_th@@ 39354
Uỷ_ban_nhân_dân 39350
chúa 42111
vô_tư 39342
lệ_phí 39341
Ste@@ 39339
cuộn 39930
Viễn_thông 39274
chào_đời 39271
viền 40639
khoác 41036
nữ_hoàng 39235
ồ_ạt 39232
BT 40275
mưu_sinh 39213
Phạm 58913
tha 40720
nghỉ_việc 39192
thăng_hoa 39170
xâm_lược 39165
tor@@ 39157
râu 40276
cảnh_cáo 39138
sản_phụ 39127
Đôi_khi 39126
Tình_hình 39126
model 39484
xem_lại 39125
nới 44343
28@@ 39081
T-@@ 39075
Trọng_@@ 39073
Đỏ 41492
nội_thành 39066
thịnh_vượng 39065
Nguyễn_Minh_@@ 39052
vận_tốc 39049
công_trường 39032
Hành_trình 39030
bôi 40259
thực_khách 39027
Hoài 45071
răn_đe 39023
hội_chợ 39020
vắt 39904
kích_động 38998
200@@ 38992
ty@@ 38977
Ban_Bí_thư 38975
khốc_liệt 38972
mg 39103
el_@@ 38947
cớ 49042
Giảm 40114
rang 39314
tịch_thu 38895
Kỳ_@@ 38892
lây_nhiễm 38885
một_khi 38878
PC@@ 38874
đúc 40856
Nông_dân 38869
xi@@ 38867
140 39517
đánh_đầu 38856
Is@@ 38848
Hè 42268
tuổi_thơ 38837
nóc 39496
FBI 38871
22.@@ 38802
17/@@ 38801
Người_phát_ngôn 38797
Đội_hình 38791
Hội_chợ 38787
quạt 40451
27/@@ 38767
Ba_Vì 38764
21/@@ 38763
Sam@@ 38751
hiền_lành 38717
cảm_động 38714
mãi_mãi 38689
Geometridae 38679
ngỏ 40582
đúp 39896
Khối 40673
Assad 38681
tàu_khu_trục 38617
Pro 40055
kệ 39607
vuông 39977
đạm 40651
con_nhỏ 38582
Đình 53373
bao_vây 38572
đánh_cắp 38571
K.@@ 38565
lý_luận 38559
J.@@ 38549
lữ_hành 38542
ua 38562
cá_thể 38524
tải_trọng 38518
hậu_trường 38516
ODA 38952
cá_tra 38505
nghi_lễ 38490
mở_đầu 38483
ngẫu_nhiên 38480
làm_khách 38457
từ_từ 38443
Sức_khoẻ 38428
29/@@ 38421
chấn_động 38403
Tám 38951
Val@@ 38402
hít 39367
Điền 39592
ngoài_ra 38364
kinh_ngạc 38362
dàn_dựng 38360
U21 38606
he@@ 38341
ev 38339
age 38323
sản_sinh 38316
50@@ 38284
dễ_chịu 38265
Hari_Won 38262
tuỳ_thuộc 38252
sơ 72999
360 39325
quất 38493
danh_giá 38231
Quan_hệ 38220
máy_chủ 38213
Tạo 40088
long 40607
Gặp 38698
Ngay_lập_tức 38170
lin@@ 38165
phàn_nàn 38143
Bộ_Tư_lệnh 38138
Việt_kiều 38130
Tham_dự 38126
vững_mạnh 38123
giặc 39442
Khả_năng 38102
ch_@@ 38095
cúi 38620
đính 39584
gợi 44023
www.@@ 38065
Không_gian 38054
rớt 38787
phế_liệu 38046
tỷ_trọng 38040
hệ_sinh_thái 38039
mạ 39101
tình_thế 38022
60.000 38721
Hy_vọng 38006
NG@@ 38002
ada 37996
ôi 38158
huỷ_diệt 37993
Điệp 39064
logo 38903
Ứng_dụng 37975
Ben@@ 37969
Chất_lượng 37960
Niềm 38783
hải_lý 37935
hông 38853
_h@@ 37927
We@@ 37926
hoài_nghi 37926
trái_đất 37914
tiếp_thị 37891
hộp_số 37884
tiêu_chảy 37875
hứng_thú 37864
Nguyệt 39717
Ca@@ 37847
vo 38425
phụ_cấp 37824
1981 37926
Bank 38526
chế_tài 37808
biết_bao 37806
Hữu_Thắng 37801
tập_kết 37800
ông_xã 37797
ty 131786
ít_nhiều 37771
Chống 39021
des 37795
Chắc_chắn 37757
buộc_tội 37757
Sân_bay 37754
xấp_xỉ 37742
Chi_nhánh 37724
ton_@@ 37708
ích 56781
căn_bản 37682
TC 37789
24/@@ 37670
Trung_Hoa 37649
chuyên_trách 37619
10-@@ 37617
trầm 43596
binh_lính 37578
1,6 38247
Nỗi 38350
sọ 40347
đầu_bếp 37536
mật_khẩu 37532
450 38517
Quyên 37860
Quy_chế 37503
thích_nghi 37498
hạm 40217
chỉ_dẫn 37480
hô 44296
hiểm 60657
Tìm 39339
2.500 38458
mỳ 37757
phong_tục 37428
luận 70280
Đường_sắt 37416
miễn_dịch 37398
nể 38486
Trường_Sơn 37389
Vua 38641
Khải 38617
vĩnh_viễn 37358
Tấn_@@ 37331
tiên 93191
Dortmund 37887
đuối 39593
Cú 38958
Mô_hình 37256
GPMB 37953
ù 37301
DJ 37336
Câu_lạc_bộ 37232
Hương_Giang 37211
Gar@@ 37207
Thiết_bị 37201
Đậu 38078
cầu_thang 37196
.com. 37194
Bắt_đầu 37178
chủ_đạo 37178
Thoả_thuận 37171
like 37913
Khách_sạn 37146
Màu 38649
Vĩnh 50062
Đại_tướng 37134
sắc_màu 37114
thương_lượng 37102
chiến_lược_gia 37101
Đàn_ông 37092
Chọn 37952
Điều_tra 37086
Thị 85179
Tác_phẩm 37075
tin@@ 37074
trào 49380
Scotland 37191
Damascus 37192
nguy_hại 37029
thường_trú 37000
Nhân_@@ 36989
cách_biệt 36985
Trung_đoàn 36978
chỉ_thị 36970
nòng 38005
tha_thứ 36954
hệ_số 36943
quỹ_đạo 36940
TĐ 36953
Pu@@ 36921
Vy 40387
quyết_toán 36906
Thanh_Hà 36895
ắc 37163
đổ_vỡ 36879
es_@@ 36876
23/@@ 36870
quy_luật 36862
á 37371
Nay 37623
bẩm_sinh 36850
có_thai 36822
lôi 39159
thuận 66355
vật_lý 36817
thực_ra 36813
ba_mẹ 36810
ano@@ 36794
tù_giam 36784
Mục_đích 36783
đực 37479
Noel 36856
Mười 37438
hàn 41074
1/2 37095
don 36739
Liên_hoan 36729
giai_điệu 36724
kho@@ 36723
eri@@ 36721
dân_làng 36710
dữ 53120
Los_Angeles 36695
3-0 37378
công_sở 36688
kiên_nhẫn 36678
số_một 36671
soạn 39818
mũ_bảo_hiểm 36652
Trung_tướng 36652
Hạm_đội 36643
vương_quốc 36640
Bố_mẹ 36633
lòng_đường 36632
Tên_lửa 36627
Nhà_@@ 36623
hành_lý 36623
Đội_tuyển 36620
sắm 41851
nội_y 36615
đột_quỵ 36614
Robert_@@ 36609
thẩm_phán 36607
thay_mặt 36591
năng 165928
90@@ 36556
AI 37357
tượng_trưng 36539
Manchester 37966
SJC 39762
xu 48338
nha 37593
số_hiệu 36514
nạo_vét 36513
kết_án 36509
chì 37105
mềm_mại 36506
chi_phối 36502
1976 36569
Man_United 36484
ông_@@ 36479
Nâng 38906
Thiếu 39693
Thế_là 36410
trả_thù 36381
Audi 36663
dấy 37556
za 36370
ang_@@ 36370
nghiệm_thu 36363
Trung_tá 36362
tổ_tiên 36339
CC 36347
Vậy_mà 36331
1/8 37254
lũ_lụt 36322
tín_ngưỡng 36319
Tân_Phú 36319
phần_thưởng 36295
bỏ_rơi 36285
dân_thường 36281
thiếu_niên 36272
Cận_cảnh 36271
cá_sấu 36266
ari 36261
phấn 46667
chuyên_khoa 36226
lang_thang 36224
Bảo_an 36198
cây_cảnh 36195
CATP 36616
dòng_họ 36191
11@@ 36188
tất_yếu 36187
quanh_năm 36186
tạo_dựng 36181
TDTT 36563
dấu_vết 36178
Getty 37358
ran@@ 36161
hệ_luỵ 36158
Văn_bản 36150
nhuyễn 36767
Cảm_ơn 36136
hàng_hiệu 36135
bàn_phím 36134
st 36132
tưởng_chừng 36119
hữu 68902
cốt_lõi 36111
ten@@ 36101
1,8 37140
giết_mổ 36068
nhà_riêng 36063
Sắp 36799
Bình_Tân 36056
Đối_tác 36030
đồ_dùng 36021
Khán_giả 36012
# 36015
cơ_bắp 36008
nhỉ 36132
Lạc 37930
nôn 37403
keo 37086
công_phu 35968
ASIAD 35974
hữu_hiệu 35959
băm 36304
thành_đạt 35951
Huy_@@ 35950
chuyên_viên 35947
Truyền_hình 35934
trước_kia 35926
Cao 48947
Lý_Sơn 35912
hấp 53157
hành_xử 35897
25.000 36589
Khôi 36820
hình_dung 35862
ro 45962
vs 36925
ala 35838
Mua 37205
oxy_hoá 35824
13.@@ 35811
sẹo 36248
At@@ 35801
mạnh_tay 35776
hứng_chịu 35769
Thăng 39536
NĐT 36215
đẩy_lùi 35730
châu_lục 35722
thiêng_liêng 35715
Kiều 39647
26@@ 35712
nhất_thiết 35709
đời_thường 35706
khoả_thân 35702
ill@@ 35686
lịch_trình 35683
tâm_bão 35682
xô 38543
dệt 38440
gây_rối 35657
PL 35694
Cam@@ 35636
Tư_@@ 35626
rưỡi 36135
Vạn_@@ 35616
dẹp 37275
AT@@ 35613
Vietnamnet 35759
Đa_số 35599
gu 36133
phẫn_nộ 35594
khuẩn 42531
công_@@ 35587
thí_nghiệm 35582
Điện_Biên_Phủ 35580
sương 36695
gián_đoạn 35563
í@@ 35554
giặt 36892
13/@@ 35550
xé 36361
hậu_thuẫn 35540
Sina 35755
Pan@@ 35515
dệt_may 35509
chạy_đua 35505
CD 35601
ex 35476
1973 35483
Cách_mạng 35447
XIV 35977
cọc 38968
chót 36054
Hàng_loạt 35408
trăng 36550
rêu 35703
vắc_xin 35381
Hậu_quả 35373
năng_khiếu 35368
sành_điệu 35362
US@@ 35352
oC 35350
khởi_điểm 35347
cải_lương 35346
áo_khoác 35342
khát_vọng 35342
Đề_nghị 35337
vé_số 35335
thuỷ_tinh 35334
Wal@@ 35330
giò 36732
dứa 35618
cơ_sở_dữ_liệu 35287
hộ_chiếu 35271
thung_lũng 35270
_tr@@ 35262
bịt 35888
Đông_Anh 35243
UEFA 35336
hi@@ 35229
for 35525
hơn_bao_giờ_hết 35222
thông_cảm 35221
nhận_dạng 35218
19.@@ 35214
1978 35407
sữa_chua 35203
đồng_phạm 35199
Hoàng_Văn_@@ 35188
Lầu_Năm_Góc 35179
ra_tay 35171
ê 35932
cơn_sốt 35146
xác_lập 35121
lệ 74926
khởi 60834
biết_ơn 35099
phần_cứng 35088
nghị_định 35087
ker 35069
c-@@ 35067
lén 35886
trình_duyệt 35059
San_@@ 35057
giã 37898
bàn_bạc 35052
hang_động 35051
khích_lệ 35045
up 35497
đại_@@ 35042
Lá 35429
Airlines 37263
để_dành 35029
ĐTVN 35037
ái 39075
phím 35717
12% 35902
Bích 38117
cơ_khí 35012
SE@@ 35004
Bình_Minh 35003
thâm 37787
con_tin 34997
ts@@ 34991
ăn_@@ 34988
Giải_pháp 34983
IMF 35660
siêu_âm 34966
/@@ 34962
kov 34961
đặc_tính 34952
ủ 39558
bất_kể 34929
inh 35137
hộ_khẩu 34928
Bích_@@ 34919
Màn 36207
Thanh_Trì 34881
bán_dâm 34877
gia_chủ 34872
tỉ_mỉ 34866
ama 34851
mồ_côi 34848
Gia_Lâm 34846
file 35013
hộ_tống 34834
Noctuidae 34827
ach@@ 34824
10,@@ 34813
gọn_gàng 34811
Serbia 35353
tái_xuất 34797
Peru 35489
thiên_đường 34784
der@@ 34777
sa_mạc 34774
SUV 36732
Lưu 40256
Nguyên_@@ 34764
Hân 36093
trút 35545
150.000 35347
kiểm 119377
chu@@ 34743
ghi_chép 34735
oo@@ 34735
khéo 37684
MB 35549
bao_bì 34713
khắt_khe 34708
biệt 99101
Hà_Hồ 34700
đảo_chính 34698
ani@@ 34690
37@@ 34682
Bra@@ 34682
lập_trường 34681
ash@@ 34657
ngang_nhiên 34629
Năm_ngoái 34624
Năng_lượng 34613
tế-xã 36781
17.@@ 34606
bàng_hoàng 34589
F-@@ 34587
nhộn_nhịp 34586
TƯ 35648
tất 69226
độc_thân 34565
UAE 34773
Tam 42303
phóng_xạ 34548
Nguyễn_Thị_Kim_Ngân 34547
Em@@ 34539
khát 39729
thiên_thần 34528
cầu_kỳ 34526
sp@@ 34524
Pal@@ 34522
1974 34595
Nadal 34693
trình_tự 34507
Hội_đồng_quản_trị 34503
đức 38889
kỳ_diệu 34487
Hùng_@@ 34471
gieo 36822
chủ_nhật 34459
stress 34788
lặng 37424
be 35019
vùng_sâu 34427
Sa_Pa 34421
115 35596
tây_nam 34419
nương 36494
2.0 35098
ver 34399
hồn_nhiên 34382
ce@@ 34381
Tổng_Thư_ký 34366
lĩnh 66403
Cho_nên 34358
tự_phát 34355
Phường 36304
phân_luồng 34335
thuở 35030
lúng_túng 34320
VKS 35313
hội_chứng 34319
Mùi 35142
Sơn_Tây 34309
Viet@@ 34308
TN@@ 34305
đăng_cai 34303
39@@ 34275
vá 35060
thấu 36784
laser 34367
Cánh 35088
Tuổi_trẻ 34229
ur 34226
Uruguay 34327
Uỷ_ban_Nhân_dân 34209
Sư_đoàn 34207
Mat@@ 34197
ra_sức 34193
TMCP 35367
Tuỳ 34180
ao@@ 34177
khiêu_khích 34170
chuyên_án 34163
mô_phỏng 34161
Miss_@@ 34156
bộ_nhớ 34155
KT 34311
Florida 35552
mác 35135
5,5 34567
khuất 35193
Bắt 37063
Tháp 36745
bo 34455
Bloomberg 35022
3-1 34540
Lớn 34716
Hường 35225
Trước_mắt 34078
vo@@ 34077
đấm 35155
ke@@ 34064
Quán 35594
tiền_nhiệm 34035
Sở_hữu 34032
quần_vợt 34023
hỗn_loạn 34017
Gò_Vấp 33995
Xuất_hiện 33989
i_t@@ 33988
Pri@@ 33988
cuộc_chơi 33984
Minh_Hằng 33982
ghi_âm 33982
lấn 37550
Tôn_@@ 33978
ì 34271
ge 34002
hoảng_loạn 33953
mộc 40108
thu@@ 33938
2/3 34629
lùm 34780
Đồng_@@ 33931
Thực_phẩm 33922
Che@@ 33920
Đưa 35354
huỷ_hoại 33911
bảo_trợ 33910
D.@@ 33900
Na@@ 33896
uy@@ 33883
vùi 34755
Hoàng_Thị_@@ 33870
trí_thức 33869
Nàng 34592
bắp 36568
thời_lượng 33839
Trần_Ngọc_@@ 33827
sưu_tầm 33826
an_ủi 33815
cẩn_trọng 33810
60@@ 33797
.0@@ 33793
Bất_động_sản 33790
Yu@@ 33777
Ankara 34167
truyền_cảm 33770
nhiếp_ảnh 33759
trì_hoãn 33755
rút_tiền 33751
Sức 35732
ida 33743
cấm_vận 33731
bao_phủ 33731
đắt_giá 33730
Đ.@@ 33721
đầu_tay 33717
Mer@@ 33716
thông_thoáng 33715
Hùng_Vương 33712
Taliban 34089
chính_quy 33700
Huyền_@@ 33698
san_hô 33689
gián_tiếp 33687
bộ_đồ 33677
Han@@ 33672
tum 33736
ngoại_trừ 33665
tội_ác 33651
Vua_@@ 33646
Cuốn 33941
cấy 35122
15,@@ 33641
Kỳ_Anh 33629
Trung_thu 33628
Dubai 33756
Vietnam_@@ 33615
Hỏi 33956
thiếu_thốn 33611
Nm 34385
quần_thể 33608
quái 35400
sơ_mi 33593
Hoài_@@ 33590
địa_chất 33581
ân 36868
phản_bội 33577
dư_nợ 33577
Lai 44394
Valencia 33735
học_đường 33560
Bữa 34320
Tuấn_Hưng 33552
trí_nhớ 33546
đàn_anh 33534
Phòng_chống 33521
Dẫu 34461
Kiến_trúc 33518
bể_bơi 33505
măng 35083
bán_chạy 33478
nguyên_vẹn 33475
biến_dạng 33465
Đăng_@@ 33460
tiến_công 33450
bỗng_dưng 33446
Gương_mặt 33431
buồng 34451
tham 131631
Texas 34545
hư_hại 33422
điệp_viên 33410
Bas@@ 33408
Đ. 33405
Dân_tộc 33399
ngứa 33874
ục 33389
80.000 34076
22@@ 33345
lung_linh 33341
đò 33805
ử 36786
nhốt 33730
rầm_rộ 33319
Khê 34435
Tiên_@@ 33307
bầu_chọn 33287
đông_lạnh 33286
min@@ 33282
đơn_phương 33273
mệnh 41284
Thần 35497
võ_sĩ 33251
hình_thể 33250
cử_nhân 33238
nhập_cảnh 33231
Eu@@ 33230
độ_ẩm 33228
18.@@ 33224
chậm_trễ 33221
đón_tiếp 33210
Đấy 33626
gầy 34526
áp_thấp_nhiệt_đới 33206
che_giấu 33202
Lưu_ý 33199
Củ_Chi 33198
Bất_chấp 33175
truy_tìm 33164
Đệ 35045
Hảo 34203
dưỡng_chất 33156
tế 222897
xót_xa 33149
sào 33547
đa_cấp 33145
SGK 33741
ràng_buộc 33134
am_@@ 33133
Lý_Nhã_Kỳ 33123
thân_nhân 33120
chiều_hướng 33115
ức_chế 33110
ứ 33729
15.@@ 33106
sừng 34002
đậm_đà 33100
Cung 35647
xa_xôi 33059
Quan_trọng 33051
chạm_trán 33043
to_@@ 33031
du_thuyền 33029
cholesterol 34392
thua_kém 33013
M-@@ 33012
cá_mập 33004
yo@@ 33000
cừu 33092
SH 33277
tay_chân 32992
:@@ 32984
trọng 125359
trục_trặc 32971
Ser@@ 32967
VnExpress 33360
Cụm 33653
cử_chỉ 32956
trái_ngược 32941
ốp 34051
sắn 33669
mặn_mà 32910
Vinamilk 35213
Gra@@ 32889
linh 44171
Quan_điểm 32878
mong_chờ 32874
mở_đường 32865
chiếm_đóng 32864
Thượng_tá 32855
1,4 33581
gặt_hái 32819
vũ_khí_hoá_học 32814
Thạnh 35546
bất_kì 32805
tệ_nạn 32805
16.@@ 32802
ra_@@ 32801
Á@@ 32798
Air@@ 32792
WB 33350
lâm_sàng 32784
lạc_hậu 32781
đầu_cơ 32760
Zika 32758
Huyền_My 32729
ban_ngành 32723
bánh_xe 32722
hợp_tác_xã 32698
Nguyễn_Quang_@@ 32692
vác 33381
toạ_lạc 32689
n_t@@ 32682
Mặt 42862
thực_đơn 32667
30-@@ 32658
lời_lẽ 32656
hài_cốt 32649
CA@@ 32631
thông_tư 32631
Col@@ 32625
ngày_tháng 32624
thi@@ 32617
we@@ 32613
May 34172
son_@@ 32578
thanh_lý 32575
đông_đúc 32574
bất_bình 32574
ell 32572
cà_rốt 32565
phát_nổ 32564
hét 33441
ir 32557
bàn_chân 32551
Nội 103652
lan@@ 32539
hacker 33347
liên_quân 32518
tinh_trùng 32512
Tehran 33475
đường_cong 32505
ino@@ 32500
bí_thư 32496
Hạt 33549
xích 33884
pa 32549
Hình 39318
12.000 33501
1950 32649
Bel@@ 32463
thấu_hiểu 32443
Tử 39476
Mong 33112
Vin@@ 32413
massage 33228
Nguyễn_Hoàng_@@ 32411
cây_số 32407
đường_hầm 32391
170 32780
lều 32973
vùng_xa 32371
liên_thông 32368
mong_manh 32364
đẹp_trai 32359
tes 32355
Cúp 33961
phòng_bệnh 32347
Olympic_@@ 32341
BlackBerry 32338
Địa_Trung_Hải 32336
GV 33160
Ca 36921
Điện_thoại 32315
Thanh_Bình 32314
Tình_cảm 32307
1,7 33055
res@@ 32305
Vượt 33179
Kẻ 33052
tử_tế 32302
can@@ 32301
hoàng_tử 32292
khát_khao 32292
75% 32792
bao_trùm 32285
che@@ 32283
ero@@ 32282
AS@@ 32281
ám_sát 32277
Dường_như 32269
Atletico 32978
400.000 33097
giang_hồ 32256
mẹo 32822
GDVN 32239
vững_vàng 32238
bán_đấu_giá 32237
S-400 32740
mỉm 32907
Hàng_không 32209
địa_danh 32206
Cát 38702
đá_quý 32175
MW 32355
Moon 33854
heroin 32774
hỏi_thăm 32163
yl@@ 32157
Dựa 32760
Giá_trị 32129
Uyên 33680
phòng_tránh 32108
khống 38451
phấn_khích 32087
Sóc_Sơn 32077
khuyến_nghị 32069
rụi 32422
hiền 34185
cầu_hôn 32059
ơ 32726
hậu_cần 32035
14.@@ 32033
Nguyễn_Hồng_@@ 32014
kẹp 32402
GĐ 32301
bà_xã 32003
Gươm 32529
cao_quý 31978
Diễn 36801
Đơn_cử 31966
Nguyễn_Trọng_@@ 31959
bản_sao 31959
làm_thuê 31941
Cơ_sở 31941
45@@ 31932
gia_công 31922
.000-@@ 31918
Bưu_điện 31913
VinaPhone 31989
Tuyển 32476
bào_chữa 31908
gram 32447
Hợp 37632
nhân_quyền 31900
les 31899
kịch_tính 31891
Ninh_@@ 31874
Bùi_Văn_@@ 31873
quang 38379
đầu_gối 31871
Tuân 32342
Tác_giả 31868
phương_hướng 31862
thuế_thu_nhập 31857
ví_như 31856
quảng_trường 31855
Huy_chương 31853
Vương_Đình_Huệ 31851
Ngọc_Anh 31851
Donetsk 31848
Hào 32276
tương_xứng 31837
vội_vã 31837
ICTnews 31824
lột_xác 31815
ngập_lụt 31807
cầm_đầu 31781
tạt 32680
điện_toán 31776
ức 35751
xùm 32408
Quyết 42891
nhăn 32691
AFC 32089
kiến_trúc_sư 31751
ae@@ 31749
độc_tố 31747
điểm_nóng 31737
DA 31770
lí_do 31731
Xá 32410
sáng_giá 31727
Victoria 33728
201@@ 31716
Tiếp_theo 31713
sát_thủ 31710
ans 31694
Wi@@ 31692
Far@@ 31667
tin_tặc 31653
thoả_đáng 31653
rót 32409
1977 31797
Đồng_bằng 31641
V-@@ 31638
01/@@ 31634
hiệp_hội 31629
giải_khát 31625
mắm 33928
1954 31642
sk 31597
VGP 31907
Khương 33210
diễu_hành 31584
quấn 32404
Chất 33653
Lộc_@@ 31572
tạng 32754
calo 32336
Táo 31715
thuật 74374
bùng 45460
phản_biện 31495
n_th@@ 31491
ite 31489
Lực 37492
Chi_phí 31486
ú 31533
đương_đại 31479
viếng 31834
tình_nguyện_viên 31465
ina_@@ 31461
Federer 32019
khoai 33421
mộng 33413
lâm_nghiệp 31450
XI 32231
Wi-Fi 31548
Trước_hết 31430
Pha 32126
đũa 32433
quỷ 32890
yêu_quý 31410
Xuyên 33859
ry@@ 31405
ng_t@@ 31395
Da@@ 31392
ale 31390
Cổ_@@ 31387
lâu_đài 31380
cực_đại 31378
khởi_sắc 31371
Cerambycidae 31359
nữ_giới 31352
mer@@ 31351
tràn_đầy 31349
4-5 31809
Galaxy_Note 31322
thầy_cô_giáo 31320
nhiệt_điện 31316
nu@@ 31312
Chủ_nhật 31311
Mazda 32587
tuổi_tác 31281
cor@@ 31274
20.@@ 31270
siêu_sao 31268
WHO 34712
nội_trợ 31263
cầu_nối 31257
bàn_tán 31257
tiêm_chủng 31254
Hồng_Nhung 31254
thông_cáo 31243
Tóc_Tiên 31233
X-@@ 31232
ess@@ 31231
16,@@ 31211
trong_sạch 31209
khai_quật 31206
nhiệt_huyết 31201
lưới_điện 31196
trên_dưới 31184
phòng_vệ 31179
trèo 32009
Ly@@ 31165
thượng 37112
mìn 33094
Quý_@@ 31145
thoại 53674
Chi_Pu 31135
dân_sinh 31133
18,@@ 31129
bài_thuốc 31120
1967 31237
1.3@@ 31099
Bur@@ 31093
Kiến_Thức 31081
hồi_hộp 31078
Tín 33670
Zing.vn 31140
kế_tiếp 31068
bãi_bỏ 31068
Đông_Nhi 31065
Công_ước 31059
thề 31373
biên_tập 31052
thuế_suất 31046
kinh_dị 31034
Mac@@ 31030
xế 38883
ình 31114
Nguyễn_Trãi 31026
nam_nữ 31024
phản 61850
ex@@ 31019
LĐBĐ 31183
bẻ 32131
si 31164
điền 33095
Getty_Images 30995
giao_tranh 30990
khởi_hành 30981
ả 31137
Mưa 32926
học_giả 30974
Bách_khoa 30963
Tổng_số 30960
11,@@ 30953
XK 31269
vụn 31326
ngả 31734
thủ_phủ 30902
Tin_Tức 30899
căn_cứ_quân_sự 30892
biến_thể 30883
CS 30891
Đinh_La_Thăng 30880
đầu_lòng 30876
KTĐT 30885
1/5 31071
Quang_Hải 30865
12,@@ 30864
phương_châm 30860
chéo 32212
AM@@ 30856
1.4@@ 30854
Au@@ 30846
sống_động 30841
GT 31373
VHTTDL 31198
Bến 35055
Thu_Minh 30816
hoạch_định 30801
dã_man 30799
dứt 42657
Thanh_Hằng 30767
Atletico_Madrid 30765
xuất_thân 30759
km2 31127
mép 31346
New@@ 30732
hối_hận 30720
ATTP 30996
Đạo 32554
Na 33481
ổi 31464
series 31393
bong 32240
Thủ_Thiêm 30672
cổ_tích 30653
Lý_giải 30653
dưa_hấu 30649
nón 31518
ji 30642
Triệu 36274
13,@@ 30629
kỉ_niệm 30628
tái_chế 30608
tảng 42036
Ra 31667
tang 37338
cổ_đại 30599
Thành_viên 30591
phải_chăng 30586
thang_máy 30585
cao_độ 30578
xa_xỉ 30576
mương 32053
bồn 31912
Ngọc_Sơn 30551
thừa_kế 30550
Nguyễn_Thiện_Nhân 30549
tồn_kho 30549
thế_là 30548
Nhân_vật 30547
Ka@@ 30542
1.5@@ 30540
uỷ_viên 30529
Tấm 30933
ghe 30938
ek 30515
hợp_chất 30505
đột_xuất 30505
eli@@ 30475
Dầu 33142
tần_suất 30462
ngo@@ 30455
ố 30794
35% 31126
vòm 31669
trăm_năm 30431
chọc 31763
ram@@ 30421
Sar@@ 30421
Đông_Á 30420
nhồi 31199
ứng_cử 30414
dự_tính 30410
Mercedes 31266
cảnh_tượng 30384
lạnh_lùng 30379
ed_@@ 30375
tâm_trí 30356
Un@@ 30355
World 33674
Âm_nhạc 30343
tình_nhân 30337
vô_lý 30328
0,5 30491
Hi@@ 30270
Kho@@ 30265
Đất_đai 30259
Quan 35235
mắng 31154
Nhạc_sĩ 30256
Vũ_Văn_@@ 30252
Man 36935
Ta 30662
điện_năng 30248
phim_điện_ảnh 30229
khao_khát 30225
thiếu_sót 30220
oc@@ 30219
Mông_Cổ 30211
NASA 30714
dung_dịch 30208
ides 30196
Thuỷ_điện 30193
toán_học 30192
xác_thực 30182
mer 30182
lin 30302
105 30988
động_mạch 30172
tay_đua 30160
Giêng 30424
thị_thực 30158
đích_thực 30152
đan 32845
kiểm_lâm 30138
mông 31239
áp_đảo 30122
all@@ 30110
lắc_đầu 30096
lề_đường 30094
ắt 30413
VH 30099
dân_ca 30069
Phụng 30913
Cổng 33493
WTO 30480
ngấm 30597
Thuý_@@ 30040
Lionel_Messi 30040
Nu@@ 30034
NN-PTNT 30727
thường_ngày 30029
bồ 31205
Trẻ_em 30005
đồng_@@ 30003
Thượng_tướng 30002
rạch 31335
thứ_tự 29992
toát 30858
Điện_ảnh 29979
Sacombank 30650
thăm_khám 29974
ung_@@ 29971
lũ_quét 29968
nhiễm_khuẩn 29966
ü@@ 29966
ol 29956
Đông_Dương 29955
trục_xuất 29942
xe_điện 29940
biếu 30894
vòng_tay 29938
Thuỳ 29938
Lan_Khuê 29927
Times 32035
nhỏ_lẻ 29921
Bá_@@ 29919
cưa 30622
hoàng_gia 29909
phẳng 30475
liệt_sỹ 29890
vật_nuôi 29882
gõ 30755
xe_gắn_máy 29873
Kinh 46644
HCB 29911
ăn_ở 29870
ste@@ 29866
say_mê 29862
ber 29866
Sở_dĩ 29852
QĐ-UBND 29844
nude 29975
rải 36065
Johnson 31087
QL 30095
Hoa_khôi 29816
mưa_bão 29810
mất_ngủ 29804
vong 52873
hồi_sinh 29798
tận_mắt 29797
cương 35026
tật 37477
Nor@@ 29794
1971 29955
âu 31207
bạn_đời 29775
Vương_quốc_Anh 29772
điêu_khắc 29768
Kremlin 30006
chợt 30011
a_L@@ 29756
Định_@@ 29753
e_ngại 29749
ep@@ 29730
Lữ_đoàn 29720
eu@@ 29718
Trạch 30898
khó_tính 29716
Đô_đốc 29707
70.000 30732
nghi_thức 29701
Hillary_Clinton 29700
ồng 29724
Monaco 29770
Phan_Văn_@@ 29695
khoáng_chất 29688
Bắc_Kạn 29687
Khó 30282
Ngồi 30120
Đường_bộ 29670
rẫy 30396
80@@ 29670
sấy 30900
kế_thừa 29648
Nhắc 30067
bốc_thăm 29621
ăn_khách 29614
Chu@@ 29613
đóng_gói 29608
chịu_khó 29607
Trúc 31277
khuôn 37881
cai_nghiện 29591
pe 29592
Giết 30379
tiếp_diễn 29583
Vườn 30918
thẻ_đỏ 29575
NG 29580
CB@@ 29563
lập_pháp 29557
Az@@ 29557
Dar@@ 29555
nội_chiến 29553
tiếp_đón 29544
Formosa 29728
Tar@@ 29543
tượng_đài 29539
Sho@@ 29534
triết_lý 29532
rào 41166
hình_dạng 29519
Infonet 29561
220 30257
Quách_@@ 29499
ard@@ 29490
ib@@ 29482
miệt_mài 29481
Đặt 30463
í 30254
OS 29492
HNX 30001
ov 29407
Trưởng_đoàn 29390
rượu_bia 29389
ha@@ 29384
cha_con 29376
Hữu 42115
tấp_nập 29364
Nguyễn_Huệ 29360
định_hình 29356
Tạ_@@ 29349
17,@@ 29342
Gia 50726
Nghề 30086
khang_trang 29303
Tâm_@@ 29302
ải 29594
tình_cảnh 29297
1969 29419
khai_sinh 29290
12-@@ 29284
ity 29264
sơ_đồ 29246
khai_giảng 29244
cào 31027
14,@@ 29226
dời 33984
ần 29209
Bale 29315
The 38573
chẳng_thể 29199
Quảng_trường 29196
tưởng_nhớ 29196
bề_ngoài 29194
phạm_nhân 29193
ao_@@ 29189
cóc 29723
nhiên 69024
yên_bình 29180
ten 29221
yến 30024
coi_thường 29175
War@@ 29169
khẩu_hiệu 29165
đốn 31129
CTCK 29976
nước_hoa 29151
Sol@@ 29147
CTV 29647
toàn_thân 29144
miếu 29979
rán 29761
hoàn_trả 29133
Ít 30478
công_chiếu 29125
dẻo 30213
tối_ngày 29114
ham_muốn 29114
mét_vuông 29110
lãnh 74630
xốp 29561
Mil@@ 29093
John 29720
tử_thần 29081
alo@@ 29078
Nguyễn_Quốc_@@ 29076
làm_@@ 29075
Thảo_@@ 29074
Djokovic 29267
khám_xét 29058
ili@@ 29055
Mang 29886
Yêu_cầu 29029
song_ca 29007
tích_tụ 29005
thoa 29905
Đợt 29754
triều_đại 28996
đóng_băng 28991
dầm 29554
Nhìn_chung 28985
mệnh_giá 28970
sk@@ 28963
Dược 30201
TX 30455
thẩm_tra 28960
Ak@@ 28956
osa 28951
điểm_cao 28947
Động_thái 28935
Giám 54451
thốt 29996
Suarez 29944
NV 29399
trơn 30101
ta_@@ 28907
kiên_cố 28899
Sản_xuất 28898
mứt 29833
Âu 41246
Mây 29112
Kiểm_toán 28893
Michael_@@ 28887
giơ 29474
TTCK 29816
Lang 29708
củi 29379
hoàng_đế 28871
23.@@ 28869
gr 28959
nhân_cách 28866
chủng_loại 28864
quan_trắc 28862
thối 29807
đồng_cảm 28851
thư_ký 28845
Win@@ 28845
hụt 31623
Nhiệm_vụ 28831
phụ_tùng 28827
Pleiku 32335
đồng_phục 28822
thù_địch 28821
âm_@@ 28817
le_@@ 28814
Des@@ 28812
sinh_dục 28810
Nissan 30106
lui 30287
học_viện 28776
Trưa 29295
điền_kinh 28766
da_cam 28760
Phan_Thiết 28757
Môn 29581
định_mức 28742
Mã 30717
dép 30051
mã_hoá 28728
quản 84035
văn_chương 28717
Vũ_Thị_@@ 28713
can_ngăn 28710
bánh_chưng 28710
thú_y 28704
Trách_nhiệm 28698
chảnh 30044
Bất_ngờ 28680
Kinh_@@ 28664
LHP 28973
Liêm 31255
bước_ngoặt 28634
Gà 29421
11-@@ 28628
quấy_rối 28625
mẫu_giáo 28624
zi@@ 28621
ge@@ 28611
sánh 33775
đầu_hàng 28600
vinh_quang 28599
Bùi_Thị_@@ 28598
Ram@@ 28589
750 29151
mát_mẻ 28573
12/2017 28593
nghiền 29039
phao 29416
Kiểm_soát 28558
Đô 34124
UAV 28929
TCN 28622
làm_bạn 28520
thoả 28516
Hòn_@@ 28515
Chánh_án 28505
hung_thủ 28500
tâm_tư 28494
Trần_Hưng_Đạo 28486
Nam_Từ_Liêm 28479
Belarus 28677
mỹ_thuật 28463
khép_kín 28450
Tuyền 29123
8/3 28456
bón 31569
thanh_xuân 28435
trang_trải 28432
tuân 35489
ăn_ý 28427
Forbes 29154
Calisto 28414
101 28932
yêu_đương 28412
cửa_ngõ 28409
Tốt 29567
Cơn 29114
định_nghĩa 28406
dụng 185582
phân_cấp 28398
phòng_thí_nghiệm 28394
chia_rẽ 28394
nói_dối 28393
Je@@ 28389
nước_cốt 28389
pho@@ 28386
Shi@@ 28381
B-@@ 28379
Việt_Đức 28378
tay_nghề 28369
blog 28436
đứng_tên 28361
Tor@@ 28359
Mosul 28357
chi_bộ 28354
khan_hiếm 28353
dư_thừa 28352
gân 29425
bung 28758
mến 31061
My_@@ 28338
Tống_@@ 28335
1965 28479
trả_đũa 28314
Pogba 28666
đất_đá 28311
Star@@ 28299
GDĐT 29565
Young 29836
biên_soạn 28284
Sa 35127
TV@@ 28274
Dao 28810
Thưa 28945
y-@@ 28262
then_chốt 28262
pu@@ 28255
hợp_lệ 28251
19,@@ 28249
Nhì 29550
< 28231
dis@@ 28223
di_truyền 28209
Sân_khấu 28209
La_Mã 28205
Cơ_hội 28203
chiếu_phim 28191
visa 29339
mã_số 28189
Hồ_sơ 28185
ót 28226
vay_mượn 28172
xuất_trình 28171
bóng_chuyền 28162
đồng_đều 28156
bơi_lội 28149
sc@@ 28145
Nhật_Tân 28141
Chi_@@ 28141
Phạm_Băng_Băng 28136
ăn_chơi 28135
HCĐ 28340
tốc 50950
est@@ 28121
điểm_chuẩn 28110
nếm 28605
Chu 34207
CN@@ 28102
xài 29039
Băng 30149
MI@@ 28093
khoanh 30157
Sabeco 28179
NK 28240
dược_phẩm 28068
Lộ 29034
ar_@@ 28068
Tý 29093
phái_đoàn 28057
con_nuôi 28055
chép 29396
tàn 32013
đồ_vật 28018
xịt 28939
Mã_@@ 28009
Siêu_mẫu 28002
Toàn_cảnh 27989
dược_liệu 27988
Thu_Phương 27973
05@@ 27963
lịch_sự 27955
ấu 28602
chung_thân 27949
Thế_chiến 27947
hành_hạ 27942
ass@@ 27941
đầu_thú 27939
Thích_@@ 27933
lẩu 28593
ide 27928
hoa_màu 27926
Du 37012
trăn 29508
tác_nghiệp 27912
gấp_rút 27906
Ân 28800
nảy 30192
21.@@ 27890
fi@@ 27888
dội 31858
phát_thanh 27868
mặt_tiền 27857
Gal@@ 27851
dy 28192
bar@@ 27843
ách_tắc 27840
Mậu_Tuất 27837
U22 28976
Võ_Văn_@@ 27822
có_ích 27820
đích_thân 27814
giảm_sút 27801
tên_miền 27791
ere 27788
lược 42218
Ferrari 28232
sai_trái 27777
Hàn_@@ 27776
ráo 29248
tiền_đề 27745
không_phận 27740
nhược_điểm 27739
ngập_úng 27729
cuồng 28983
27.@@ 27717
A_@@ 27716
phượt 28107
xiếc 28528
giận_dữ 27706
ngoại_lệ 27699
7,5 28388
nói_@@ 27691
sóng_thần 27686
VNĐ 28087
Song_song 27668
trục_lợi 27666
sia 27662
phen 28170
Từ_Liêm 27654
đa_phương 27652
cướp_giật 27643
BCH 29077
cộng_sự 27639
Fi@@ 27639
phim_ảnh 27639
if@@ 27630
12/2016 27652
Bro@@ 27612
ưu_tú 27599
thâm_hụt 27598
lập_luận 27579
gián_điệp 27569
đường_dẫn 27569
xấu_xí 27566
mòn 28952
Buôn_Ma_Thuột 27557
Madrid 31585
Vi 31464
St. 27550
tồn_đọng 27545
nghị_sỹ 27523
go 27811
băng_nhóm 27519
đài_truyền_hình 27516
lưu_diễn 27515
ens@@ 27508
thẻ_vàng 27506
Châu_Thành 27505
bất_thành 27504
chống_đối 27486
E5 27555
B.Bình 29003
lây 48286
Lan@@ 27466
G. 27465
nhịn 28367
sẻ 70894
30/4 27531
điện_lực 27447
ngoại_thành 27440
Tuyên 35909
20,@@ 27427
6,5 27811
eno@@ 27422
Trương_Hoà_Bình 27420
AP@@ 27414
ys@@ 27401
Đăng 30401
Idlib 27500
chay 29480
quy_phạm_pháp_luật 27389
hạm_đội 27368
BXH 28490
Hết 28242
Quan_@@ 27352
đến_cùng 27351
úp 27896
CHDCND_Triều_Tiên 27339
1m@@ 27332
báo_điện_tử 27331
Hor@@ 27316
S-300 27319
cẩu 28027
bộc_bạch 27310
kết_cấu_hạ_tầng 27309
vaccine 30032
Manila 27683
vấn_nạn 27307
kiếp 27973
nhàm_chán 27295
thế_mà 27295
tổ_dân_phố 27293
suôn_sẻ 27293
hảo_tâm 27293
tối_qua 27291
Ter@@ 27290
phần_trăm 27290
đơn_giản_hoá 27288
36@@ 27283
Truyền 37168
mãnh_liệt 27275
nội_trú 27271
Trụ_sở 27271
ầm 28015
DC 27392
Tránh 27884
tàng_trữ 27259
1964 27380
Tri@@ 27252
Nhất_@@ 27250
thiệt 46904
đường_băng 27238
ense 27236
1/4 27589
TP@@ 27236
kiểm_chứng 27236
liên_hoan 27234
BTV 28539
won 28255
Chắc 29589
nến 27562
luân_chuyển 27209
nhà_vườn 27198
biểu 82220
triều_đình 27189
sở_trường 27188
dai 28613
PR 27423
Trường_@@ 27179
ys 27177
chọi 28347
Ay@@ 27156
Giới_chức 27151
tiềm_lực 27150
do_thám 27149
cách_ly 27145
Nepal 27291
oxy 28547
truy_đuổi 27142
Bầu 29226
34@@ 27135
Mus@@ 27132
Phi_@@ 27131
ai_nấy 27128
đánh_cá 27115
lập_nghiệp 27113
tạm_trú 27112
Tak@@ 27102
11/2017 27104
chia_cắt 27096
tử_thi 27088
Vương_quốc 27086
Pep_Guardiola 27083
ươm 27731
hấp_thu 27074
tổng_công_ty 27073
Hướng_dẫn 27069
Dis@@ 27067
ville 27063
Giữ 28056
ngậm_ngùi 27056
kín_đáo 27047
đề_kháng 27047
uk@@ 27046
Ed@@ 27043
hôi_thối 27034
bất_hạnh 27027
Thu_Trang 27026
kỷ_cương 27024
bèn 28046
đâu_đó 27022
hormone 27637
Cho_dù 27015
Vo@@ 27012
108 27180
vũ_công 27005
Mel@@ 27003
1962 27198
hội_trường 26994
kiểm_nghiệm 26987
bàn_thờ 26985
Dan@@ 26983
R-@@ 26982
sai_lệch 26976
Kan@@ 26965
Phương_pháp 26959
tham_vấn 26956
vũ_lực 26954
châm 29639
Mất 27594
dẫn_chương_trình 26942
Kiểu 27685
bi_kịch 26928
sở_tại 26923
xứng 32593
Xử_lý 26919
gi 26965
ảng 27957
nghèo_khó 26906
Europa_League 26905
Phải_chăng 26897
bộ_ngành 26881
thanh_long 26878
D-@@ 26876
chủ_thể 26875
đèn_đỏ 26857
tụi 27810
NDT 27485
giao_thừa 26853
Bến_xe 26852
thanh_thiếu_niên 26846
nghị_lực 26837
Bạn_đọc 26835
ry 26838
Serie_A 26829
cổ_vật 26824
thụ_lý 26822
Bạch_Đằng 26815
liệt_kê 26810
PVC 26803
án_mạng 26799
Bông 29643
Ger@@ 26796
vành 28288
Đáp 28296
Festival 27169
phát_minh 26784
Liên_Hiệp_Quốc 26773
hết_lòng 26765
Trung_bình 26763
bật_mí 26758
như_thể 26751
hung_khí 26744
số_đo 26740
Trần_Phú 26735
KH@@ 26731
Cap@@ 26718
ê-@@ 26715
cụm_từ 26715
_ch@@ 26714
Cơ_quan_chức_năng 26711
như_ý 26708
Tài_xế 26708
sung_sướng 26708
trúng_thầu 26687
tin_vui 26680
Thuận_@@ 26674
Paul@@ 26672
ít_ỏi 26671
Lao 34008
nhìn_chung 26659
Cy@@ 26648
Napoli 27012
ăng 27338
tắc_nghẽn 26643
Cam_Ranh 26637
Bon@@ 26636
Ban@@ 26635
nhiễu 27184
cầu_nguyện 26613
Brussels 26726
xáo_trộn 26612
khoán 37450
000 26644
Cha_mẹ 26590
carbon 26958
ia_@@ 26579
bổ_ích 26577
Huawei 38346
Chuẩn_bị 26560
HOSE 27648
ách 27908
Er@@ 26553
Thành_công 26548
trán 27736
CQĐT 27146
Hạ_@@ 26542
đọ 28193
Lân 27238
kin 27927
Os@@ 26506
giải_thể 26496
20-@@ 26489
na@@ 26484
Bernabeu 26755
Nhất_là 26477
Trở_lại 26476
lầu 27139
giáp_ranh 26448
Tây_Sơn 26446
sky 26551
Ả_Rập 26435
bế_mạc 26428
lớn_lao 26428
1,1 27063
Pas@@ 26418
Phong_trào 26417
mo 26975
tương 67949
HA@@ 26414
Hóc_Môn 26389
mAh 26672
NLĐO 26375
Bỏ 26942
lăng 29846
tẩy_chay 26364
linh_hồn 26360
Thuỳ_Dung 26358
Bảo_Anh 26351
mủ 27856
chán_nản 26339
2-2 26935
Quản_trị 26326
catwalk 26831
tan_vỡ 26320
Nam-@@ 26318
cá_độ 26315
Dân_trí 26304
hiệp_ước 26298
dặn 27504
khử 29614
Eximbank 26462
Tăng_@@ 26262
bình_phục 26255
nửa_đêm 26251
21@@ 26251
Trịnh_Xuân_Thanh 26251
Lê_Minh_@@ 26241
tự_vệ 26237
MINH 26577
Im@@ 26224
Mặc 37616
Mad@@ 26216
hướng_dẫn_viên 26208
Chương_Mỹ 26200
Cuộc_chiến 26197
199@@ 26187
Ca_khúc 26186
dân_quân 26185
Phạm_Công_Danh 26181
làn_đường 26179
Chí 49638
ds 26165
anh_chị_em 26158
thẩm_vấn 26153
giấm 26575
DNNN 26190
70@@ 26141
Đặng_Văn_@@ 26140
ác_liệt 26139
máy_bay_trực_thăng 26134
lớn_nhỏ 26131
tuyên_án 26129
Hành_vi 26128
0-@@ 26128
Thanh_Tùng 26126
ANH 26376
chọn_lọc 26122
Di_tích 26107
trông_chờ 26099
lum 26108
âm_đạo 26098
den 26205
y_tá 26094
lở 34895
Tốc_độ 26080
Lenovo 26248
tập_tin 26076
Kiệt 27867
đầu_quân 26068
Ngh@@ 26067
dương_xỉ 26060
Đổi_mới 26058
ời 26044
Phương_án 26036
Cơ 42591
Video_@@ 26032
Fu@@ 26022
chuyên_sâu 26015
Một_vài 26014
Tự_do 26010
thương_tâm 26010
Sự_thật 26008
tra_tấn 25998
da_@@ 25993
Mắt 26460
ger 25987
buýt 29300
Lumia 25990
Ước_tính 25984
anh_đào 25982
điều_phối 25978
Chinhphu.vn 25978
Trọng_tài 25970
Cannes 26154
bầu_không_khí 25960
240 26772
Khắc_@@ 25952
tương_thích 25937
tai_biến 25935
lê 27284
bóp 26993
Sun@@ 25926
Đội_trưởng 25926
thêu 26289
QĐ 26242
bối_rối 25917
Hiếu_@@ 25907
đa_dạng_hoá 25903
Quân_sự 25902
3/2017 25989
lách 26748
đột_nhiên 25889
cal@@ 25883
chăm_chút 25876
vọng 60624
gật 26600
truyền_thuyết 25864
Hoài_Đức 25861
Don@@ 25857
lang 29534
US 26440
trốn_thuế 25840
mô-men 26922
E-@@ 25838
nhà_xe 25838
đốm 26268
cờ_bạc 25826
West_Ham 25821
1963 25970
TC@@ 25814
Huỳnh 32060
Th. 25808
mít 27045
tà 26306
1966 25899
Ấn 59000
ông_bầu 25789
Đá 26983
Thánh_@@ 25782
berg 25768
rốn 26898
Đàn 26904
trọng_trách 25754
lột 27176
thâm_nhập 25743
ps 25741
TA@@ 25740
World_@@ 25739
bì 27693
tinh_dầu 25738
hưng_phấn 25738
biển_báo 25734
Quân_@@ 25731
trích_dẫn 25730
45% 26330
Tưởng 26604
thăng 30540
cãi_vã 25722
bỏ_cuộc 25720
tươi_sáng 25720
rừng_phòng_hộ 25717
Pháp_Luật 25717
sáng_chế 25712
tình_nghi 25712
SM 26359
ý_đồ 25706
all 25732
bầy 26198
14% 26163
bằng_cấp 25688
rối 32382
tuyệt_vọng 25687
triệt_phá 25684
ff 25683
Tiến_Dũng 25682
toa 25917
Bangladesh 27014
nhân_công 25674
nhập_học 25669
oni@@ 25649
ma_@@ 25645
sàng_lọc 25639
Bre@@ 25637
tác_nhân 25626
cụ_thể_hoá 25626
đầu_@@ 25624
Đại_hội_đồng 25624
nội_các 25619
sĩ 90972
Chúa 26345
dân_dụng 25587
Phan_Thị_@@ 25586
Gen@@ 25584
xô_xát 25582
chen 26400
thông_lệ 25564
Camera 26214
Wil@@ 25559
Thị_trấn 25554
K-@@ 25552
Huân 26604
công_tố_viên 25547
ngất 28249
hôn_mê 25533
Nụ 25816
Thu_Thảo 25532
cư_xử 25514
iz@@ 25512
thành_thị 25509
wa 25507
Ex@@ 25501
ann@@ 25498
nghiêm_minh 25495
pop 25596
24.@@ 25487
chuyển_dịch 25481
nilon 25816
cao_nguyên 25478
Iceland 25647
hành_quân 25474
tẩm 25985
Chăm 26461
quýt 25712
chủ_quản 25464
SP@@ 25463
Nguyễn_Tiến_@@ 25456
phúc 41073
Bulgaria 25616
Thay_mặt 25451
lưu_vực 25441
Phan 39295
xa_hoa 25430
Dư_luận 25426
Br@@ 25426
Ngọc_Linh 25419
dứt_khoát 25417
loét 26333
Thuỳ_Linh 25408
1.6@@ 25402
men@@ 25399
Sport 26295
nhà_vua 25386
Thời_tiết 25380
sân_khách 25373
tình_thương 25373
Nam_Em 25366
CO@@ 25366
De_Gea 25363
té 26133
kích_cầu 25354
Người_mẫu 25349
Séc 25827
Đàm_@@ 25344
nhà_@@ 25342
Noo_Phước_Thịnh 25334
tán_thành 25332
thiên_hạ 25327
ven@@ 25325
đắm 26173
Minh_Tú 25320
ADN 26076
bàn_ghế 25317
mỹ 37003
sinh_lý 25294
sinh_trưởng 25293
nhà_phát_triển 25278
thú_nhận 25274
chân_thực 25270
dịch_chuyển 25269
10/2017 25289
bộ_mặt 25267
tiếp_nối 25257
tur@@ 25255
hoảng_sợ 25250
hiện_thực_hoá 25249
truyện_tranh 25245
Phú_Nhuận 25243
bạt 26020
Chung_@@ 25236
nam_sinh 25231
từng_trải 25225
thông_tin_đại_chúng 25220
Lệ 28793
trùng_tu 25215
công_du 25209
cột_sống 25207
y_khoa 25199
xuồng 25749
Sy@@ 25192
CPI 25749
an_tâm 25187
Rau 25777
đãi 34703
28.@@ 25171
Por@@ 25170
trước_tiên 25163
vỏn_vẹn 25163
đọng 30100
ấn_phẩm 25160
cer@@ 25155
cày 26153
kinh_tế_thị_trường 25152
Ali@@ 25146
Đại_lễ 25141
BQL 25570
Sevilla 25353
đặc_khu 25133
Ngân_sách 25131
văn_kiện 25128
bê 29763
Nghi_@@ 25121
VNCB 25106
thổ_lộ 25104
nổi_loạn 25102
M.U. 25098
Lợi_dụng 25097
ane 25093
biến_cố 25092
tưng_bừng 25091
og@@ 25089
CPTPP 25284
tt@@ 25076
tản 26433
Dàn 25735
cay_đắng 25069
phương_diện 25066
cộng_tác 25060
tục 137497
thời_khắc 25055
phiêu_lưu 25051
Jackpot 25222
Mộc_Châu 25047
Yonhap 25118
đặt_cọc 25046
kỹ_càng 25044
lấp_lánh 25021
AR@@ 25006
1946 25035
Rom@@ 24998
The_Face 24996
135 25361
Agribank 25714
Inter_Milan 24976
chủng_tộc 24969
1.7@@ 24965
3/2018 25095
Chinh 26539
neo_đậu 24962
chân_tay 24962
người_quản_lý 24958
Khám_phá 24953
Móng_Cái 24949
Di 29880
Bãi 26508
Air 25509
ala@@ 24934
đồng_bọn 24926
Fe@@ 24923
250.000 25526
ren 25434
Trị 29472
11% 25458
James 26145
quan_tài 24903
nhạc_cụ 24898
live 25554
Mãi 25735
Manchester_City 24888
xe_bọc_thép 24885
Co. 24878
Sydney 25205
adi@@ 24867
Mis@@ 24861
chuộc 25205
Bến_Thành 24849
phân_huỷ 24848
sa_sút 24848
truyền_đạt 24847
vượt_bậc 24833
Pra@@ 24832
Lớp 25483
thần_thái 24826
nhi 33950
báu 27999
ary 24815
selfie 25121
Phương_Anh 24813
trại_giam 24811
On@@ 24808
Nguy_cơ 24807
nợ_nần 24807
ẩu 25555
Thổ 30282
gáy 25647
G.@@ 24785
Yahoo 24909
26.@@ 24772
sắc_sảo 24768
Pol@@ 24766
mũi_nhọn 24752
dẫn_chứng 24752
ngửa 25346
Lệ_@@ 24747
tơ 28371
Sen 25266
ấp_ủ 24725
sởi 24829
Conte 24950
ly_dị 24717
IT 25062
Rồng 25774
Thành_Long 24694
Danh_pháp 24692
choáng_váng 24690
tiền_án 24690
SC@@ 24688
Duterte 24733
quế 25488
sus 24677
thứ_bảy 24673
Bush 24780
Kênh 25499
Ibrahimovic 24829
Kính 25304
nhai 24917
Abe 26043
sọc 25161
lộn 27253
đường_nét 24636
gửi_gắm 24634
thời_cơ 24634
1930 24856
nguyên_tử 24632
Cuộc_đời 24626
khôn_ngoan 24623
com 24671
hoa_văn 24621
ola 24613
18% 25608
sen@@ 24612
2,3 24950
Thuốc 25379
CP@@ 24603
gọt 24749
ngôn 32930
Uzbekistan 24765
giả_thuyết 24594
gánh_chịu 24591
cafe 24841
kWh 24820
ây 24572
TM 24765
tớ 25072
vũ_đạo 24561
Newcastle 24963
Lệ_Quyên 24552
ath@@ 24547
Trịnh_Đình_Dũng 24546
jeans 24886
GS.TS 25052
két 24826
Lê_Quang_@@ 24540
Việt_Anh 24534
ST 24617
mãn 28493
15-@@ 24528
Á-Thái 25008
bào 35804
đối_chiếu 24522
Thuỵ_Sỹ 24519
kẽm 24810
nội_tạng 24511
Ít_nhất 24508
ngắn_gọn 24507
ima 24498
sao_chép 24497
Romania 24681
thủ_khoa 24495
Nghĩ 24815
đại_tá 24486
Nguyễn_Tấn_Dũng 24477
sung 42719
giải_độc 24474
Đế 24870
Hoan 24984
view 26466
khởi_xướng 24457
chuyển_thể 24450
dân_chúng 24447
Hoàng_đế 24446
_N@@ 24439
đại_lộ 24438
Shinzo_Abe 24434
khẩn 37094
chứa_đựng 24432
ACB 25113
quặng 24916
ụ 24469
phu 25726
tất_bật 24422
Lục_@@ 24416
côn_đồ 24408
điều_dưỡng 24407
11/2016 24417
thâu_tóm 24401
Ý_tưởng 24392
Tứ 25997
kí 26614
Viết_@@ 24389
nòng_cốt 24388
cực_kì 24386
lộn_xộn 24385
ám 26954
CO 24625
Minh_Anh 24366
nhân_khẩu 24365
bóng_rổ 24355
chài 24524
thời_sự 24338
bộ_cánh 24336
2,2 24670
Tầm 24747
ana_@@ 24324
The@@ 24323
è@@ 24320
Ye@@ 24319
102 24767
ngư_lôi 24302
công_nghiệp_hoá 24301
ưng_ý 24297
luỹ 24283
Diện_tích 24277
co_@@ 24277
uốn 26401
tay_trái 24270
giải_tán 24270
Zidane 25820
ng_th@@ 24257
sub@@ 24256
Hol@@ 24254
nhân_tài 24247
cách_chức 24234
Thần_@@ 24217
Diệu_@@ 24207
Mag@@ 24207
ngói 25644
ưng 26429
ngây_thơ 24186
thứ_hạng 24185
Le_@@ 24185
nhiệm 123874
nhổ 24972
Vũ_Đức_Đam 24180
Dĩ_nhiên 24172
tạm_ứng 24169
ks 24168
QG 24224
Tà_@@ 24145
tập_quán 24144
đường_dây_nóng 24144
David_@@ 24144
Ap@@ 24143
shop 25007
quái_vật 24141
bứt_phá 24137
103 24543
Tranh 25005
đăng_kiểm 24123
rãnh 24445
ài 24124
Ghi_nhận 24105
tố_giác 24103
đưa_đón 24099
Ji@@ 24097
nhân_dân_tệ 24090
trong_lành 24085
hạn_hán 24081
dĩ_nhiên 24077
ét 24079
Nguyễn_Đức_Chung 24059
Trịnh 29810
sedan 25157
Gh@@ 24053
thi_cử 24052
Đỗ_Văn_@@ 24049
ii 24042
Merkel 24295
đổ_nát 24040
Một_khi 24036
tuần_lễ 24035
VIP 24153
Giám_sát 24028
Ebola 24059
nhất_quán 24025
Tổng_cộng 24019
Việt_Hương 24019
yoga 24407
Hành 31565
VI 24279
lập_trình 24001
con_@@ 23998
sư_đoàn 23996
diều 26594
ê@@ 23993
sầu_riêng 23991
aya 23984
Album 24279
thân_cận 23978
Lan_@@ 23972
giết_hại 23965
Đài_Truyền_hình 23961
nước_tiểu 23953
2/9 24132
ề 23963
Super@@ 23945
chế_tác 23929
vô_hiệu_hoá 23924
MH370 23924
Mirror 24038
uy_hiếp 23922
Es@@ 23918
650 24586
FBNV 24104
Lô 25098
nhức 24840
bất_an 23906
Yến_@@ 23899
Bri@@ 23895
Dự 47692
ria 23919
550 24564
07@@ 23879
Tuổi 29000
Lên 24511
vòng_quanh 23866
cabin 24410
ơ@@ 23861
Hiện_tượng 23860
hy@@ 23860
quản_lý_Nhà_nước 23858
Giáp 24648
ation 23850
ói 23929
Chung_kết 23849
tar@@ 23842
thiết_giáp 23838
del 24035
1.8@@ 23831
tranh_giành 23829
loay_hoay 23828
thỏ 25218
Del@@ 23822
rộ 25018
rock 23868
Cảnh_@@ 23820
nghi_án 23810
trấn_an 23810
Hải_Châu 23807
Awards 24397
Trại 24422
Hà_Anh 23791
chắc_hẳn 23791
ting 25364
buồn_bã 23789
điều_chuyển 23786
vôi 25054
trưởng_đoàn 23784
thảm_sát 23782
Thuỷ_sản 23772
giỏ 24141
thầm 25622
Nguyễn_Du 23770
ngắt 24627
13% 24033
Email 23831
sữa_tươi 23756
Cúp_@@ 23755
ĐKVĐ 24267
Vân_Đồn 23754
ish@@ 23744
VnMedia 23743
kiên_cường 23739
amp@@ 23733
gia_cố 23733
Ja@@ 23727
Hel@@ 23725
Ngọc_Hân 23724
pes 23724
py@@ 23721
Martin_@@ 23720
át 24199
minh 68238
pan@@ 23698
Panama 23730
chật 25365
ron@@ 23693
RE@@ 23691
ine@@ 23688
tái_diễn 23687
Ma_@@ 23669
Hoàng_Trung_Hải 23668
phủ_sóng 23662
ling 23786
bản_nhạc 23662
thực_dân 23659
chỗ_đứng 23659
P-@@ 23656
cây_cối 23655
Doanh_nhân 23651
HC@@ 23649
u-@@ 23641
Bolero 23730
táo_bón 23631
ghế_ngồi 23631
buồn_nôn 23623
xây_lắp 23621
thăng_trầm 23620
vượng 24782
Mỹ_thuật 23616
bầm 24363
Ý. 23603
spa 24028
Tur@@ 23599
65% 23983
áp_thuế 23591
ore 23588
vệ 90709
cọ 25006
Nhà_xuất_bản 23579
phi_hành_đoàn 23578
thực_tập 23563
Fo@@ 23557
ê-kíp 24601
85% 24241
Hawaii 23696
Cá@@ 23552
lùn 23837
ăn_cắp 23547
TBKTSG 23551
chiến_hạm 23538
q 23537
áng 25007
Dần 24541
tic 23521
Pháo_thủ 23518
đèn_pha 23507
giáng 24685
Hương_Tràm 23501
Ky@@ 23479
Khmer 23951
600.000 24128
CE@@ 23465
ek@@ 23461
ghi_điểm 23460
ico 23457
đỉnh_điểm 23457
hi 25782
Ô 25533
khoẻ_khoắn 23446
ùn 25021
xu@@ 23444
1.300 23835
nổi_trội 23443
Ngoại_thương 23442
thuốc_trừ_sâu 23442
tái_phát 23442
tham_chiến 23440
Công_giáo 23436
ngon_miệng 23433
tự_lập 23430
Tower 23644
Mari@@ 23428
The_Blues 23421
bưu_điện 23418
113 23674
nghẹn_ngào 23408
đặc_quyền 23404
Giải_phóng 23400
Màn_hình 23398
hay_biết 23394
Hữu_nghị 23391
Đảng_Cộng_sản_Việt_Nam 23391
Nhà_thờ 23386
cải_tổ 23383
lười 23860
đu_đủ 23380
Thiếu_tá 23380
Ry@@ 23369
chật_vật 23367
Nou_Camp 23367
Power 23651
hoá_trang 23360
.000.000 23358
Chế_độ 23356
Bộ_Chỉ_huy 23349
oà 23343
Viện_Kiểm_sát 23339
Bundesliga 24002
né_tránh 23337
niên 49077
ja 23336
29.@@ 23322
lắng 32998
Sim@@ 23315
4/2017 23303
Nhận_định 23297
một_mặt 23296
Thái_tử 23287
ăn_học 23287
phải_chi 23287
sưởi 23477
Leicester 24699
Su-30 23289
6-7 25618
dì 23778
Mercedes-Benz 25053
Khoảnh_khắc 23242
Thu_Thuỷ 23240
chửi_bới 23236
tinh_bột 23234
Mark_@@ 23233
17% 23638
Ara@@ 23217
tinh_giản 23209
xuôi 24322
2,4 23706
30.@@ 23201
20/11 23186
Nhà_đầu_tư 23186
tẩu_thoát 23181
rạn 24542
Yo@@ 23174
Chợ_Rẫy 23173
tự_quản 23171
đàng_hoàng 23171
cảm_thông 23167
are 23268
ngắn_ngủi 23166
SGGP 23280
Thắm 23341
Erebidae 23151
marketing 23621
NQ 23209
Doãn_@@ 23149
TGĐ 23500
san_lấp 23146
đai 29945
98% 23338
ons 23136
Quốc_khánh 23133
thứ_sáu 23127
Tiếng_nói 23122
thờ_ơ 23116
ấm_cúng 23112
bừa_bãi 23111
tam 24855
Hot 23705
Lạc_@@ 23102
qua_mặt 23100
GM 23379
báo_hiệu 23089
Quang_Minh 23087
Fre@@ 23078
Giáo_hội 23075
phận 34356
rực 25304
Ngô 31765
Xác_định 23069
Giáo_viên 23063
0.@@ 23057
CR7 23474
rượu_vang 23054
thầy_thuốc 23054
Dor@@ 23041
Sel@@ 23037
tần_số 23033
king 24447
xuất_viện 23031
qui_định 23029
ya_@@ 23025
Hal@@ 23024
Địa_chỉ 23023
PH@@ 23022
mẫu_mã 23018
tuần_hoàn 23017
nhà_xưởng 23015
Cây_@@ 23013
ào 24374
Ga@@ 23006
Vân_Anh 23003
nguy 58588
đáp_án 23002
cách_mạng_công_nghiệp 22998
Dung_Quất 22996
Trâm 24267
vô_vàn 22995
NS@@ 22992
hiến_pháp 22991
Phú_Mỹ 22991
thị_phi 22990
khoa_học_kỹ_thuật 22986
Bánh_@@ 22986
_E@@ 22983
bục 23927
Liên_hoan_phim 22981
Inter@@ 22977
ồ 23847
chat 23035
Home 23140
Văn_học 22958
1-3 23371
Kỷ_niệm 22954
Thánh 24350
yên_tĩnh 22945
công_chứng 22943
ire 22941
Southampton 23993
anus 22931
Đề 29273
X. 22927
ắng 23146
nô_lệ 22920
nấy 24757
Sử 25328
18-@@ 22908
har@@ 22907
cạo 23759
man_@@ 22895
một_chiều 22891
giữ_chân 22891
neo 23946
bong_bóng 22878
nội_đô 22874
Thoa 23368
Quế 25086
thành_phẩm 22869
bọt 23618
_Mo@@ 22862
De_@@ 22861
khiếu_kiện 22855
Danh_@@ 22855
320 23234
ze@@ 22847
trũng 23470
tận_tình 22838
Mở 24248
SE 23008
kali 22984
mận 22832
EPA 22967
Bưởi 23081
tuyệt_chủng 22803
Angela_Phương_Trinh 22798
am_hiểu 22797
nhúng 22963
KHCN 23068
Nguyễn_Thành_@@ 22789
Thật_ra 22786
sông_nước 22784
BP 22815
1/2017 22795
trung_chuyển 22766
ton@@ 22766
Ari@@ 22765
sch@@ 22764
fanpage 23918
dây_điện 22749
well 22772
vòi 23236
vung 23521
hận 24303
George_@@ 22741
hải_ngoại 22735
kĩ_thuật 22734
Đại_uý 22731
phức_hợp 22721
tin_học 22720
tiền_sử 22719
Địa_điểm 22718
nhân_ái 22714
resort 23507
I-@@ 22711
thân_quen 22710
New_York_Times 22709
I. 22707
bỗng_nhiên 22703
Luôn 23220
Xuân_Bắc 22696
23,@@ 22686
May@@ 22686
lươn 23249
phụ_trợ 22684
c_th@@ 22683
_Le@@ 22683
GD@@ 22682
William_@@ 22679
Nhi_đồng 22678
ris@@ 22674
Đỗ_Thị_@@ 22673
ght 22663
Nhà_Bè 22657
thu_xếp 22648
Ánh_Viên 22647
pa@@ 22646
đại_chúng 22645
TTHC 23313
Giáo_hoàng 22642
độ_chính_xác 22639
Nguyễn_Công_@@ 22634
gym 23005
Công_nhân 22627
Việc_làm 22627
môtô 22876
anh_@@ 22624
16% 23022
ö@@ 22619
1961 22775
tàu_hoả 22612
thâm_niên 22607
cầu_@@ 22606
jo@@ 22605
cằm 22978
Thư_ký 22590
cáo 91795
Diệp_@@ 22585
bánh_@@ 22580
àng 22587
Pre@@ 22578
0-0 22766
phúc_lợi 22572
Trần_Đình_@@ 22569
tàu_điện_ngầm 22564
Đặng_Thị_@@ 22560
lẽ_ra 22559
lồng_ghép 22556
1958 22618
trấn_áp 22545
nấu_nướng 22544
Wales 23605
VP@@ 22536
cầu_cứu 22530
tự_giác 22524
ela 22520
tay_lái 22517
người_hùng 22511
SA 22582
mix 23295
ero 22505
net 22542
kiện_toàn 22492
_Mar@@ 22491
đổ_xô 22489
Nhà_trường 22486
mor@@ 22475
ban_công 22475
thám_hiểm 22474
ME@@ 22473
đồng_hương 22472
dung 56087
lôi_cuốn 22466
hoài 24239
Có_vẻ 22458
chỉnh_trang 22458
bất_tỉnh 22456
trói 22684
ey@@ 22436
chê_bai 22435
ngổn_ngang 22434
Geneva 22629
biểu_cảm 22414
Harvard 22879
Đài_truyền_hình 22404
piano 22830
Cấm 23114
ám_chỉ 22402
kỵ 23169
Gor@@ 22395
Đinh_Dậu 22394
khẩu_trang 22392
xi 22984
90.000 23121
dâm 30152
bro@@ 22381
sả 23043
trang_trọng 22380
Đồng_Tâm 22374
xung 38224
Tal@@ 22365
Nguyễn_Duy_@@ 22362
Vi_@@ 22362
Thiện_@@ 22361
nhả 22835
OPEC 22470
Stamford_Bridge 22342
Hậu_vệ 22337
thảo_dược 22335
Thìn 23029
lớn_mạnh 22322
Ir@@ 22321
1959 22383
Ban_chấp_hành 22312
nghịch 23899
Ngắm 22474
Hiểu 23865
Alibaba 22631
Kam@@ 22295
QĐ-@@ 22290
tụ 31268
Tập_trung 22285
tờ_trình 22284
Ecuador 22299
5/2017 22368
VietinBank 24699
Đông_Âu 22272
an-@@ 22270
Thạc_sĩ 22265
9/2017 22324
2.0@@ 22252
loài_người 22251
con_trẻ 22248
hoang_sơ 22247
Tầng 22484
n.@@ 22243
Thủ_môn 22243
xá 24812
Thi_@@ 22234
lưu_động 22230
dục 54186
Char@@ 22221
Phủ 23593
định_dạng 22215
Sir_Alex 22207
MA 22217
Đằng 22993
Emirates 22551
binh_sỹ 22193
nia 22240
Biên 30817
loãng 22658
chuyển_tiếp 22176
xấu_số 22173
xã_hội_chủ_nghĩa 22171
dương_vật 22170
99@@ 22170
kỷ_nguyên 22168
vu@@ 22168
Đề_xuất 22166
Sữa 23645
Khuê 22945
ı@@ 22161
Vật_lý 22160
rạn_nứt 22158
phim_hoạt_hình 22152
Sc@@ 22150
Bảo_tồn 22148
6/2017 22239
Tiêu_@@ 22146
1/2018 22159
Hà_thành 22141
20h 22475
tổng_đài 22135
tiểu_đoàn 22135
linh_thiêng 22130
vòng_tròn 22123
Bước_đầu 22121
8/2017 22117
vô_tội 22103
Vũ_Quang 22098
cuồng_nhiệt 22098
l_@@ 22095
@ 22106
Kuala_Lumpur 22079
trỗi 22717
ối 22225
danh_thủ 22076
Mầm_non 22072
Cố_ý 22067
khoai_lang 22065
ford 22060
thương_nhân 22060
A1 22439
phát_xít 22058
Chính_@@ 22058
thân_thể 22052
tang_lễ 22050
ly_@@ 22050
Nam@@ 22049
por@@ 22047
SC 22672
ade 22043
hữu_hạn 22035
Văn_Miếu 22033
quân_@@ 22032
3.500 22535
Arab 22380
IC@@ 22026
Open 22142
Lin@@ 22024
nhảy_múa 22022
lam 23405
Ci@@ 22021
Động_cơ 22020
đoàn_tụ 22020
Hiến 25955
Na_@@ 22011
Kazakhstan 22257
tươi_tắn 22002
Đơn 25938
vật_lộn 21998
iên 22083
Brunei 22733
tai_tiếng 21993
dị_tật 21989
phê_phán 21987
cover 22327
Lệnh 22743
Airbus 22447
đường_@@ 21976
3-2 22457
2016-2020 22668
thông_quan 21969
Phạm_Văn_Đồng 21961
Vinh_@@ 21954
phụ_gia 21952
boy 22141
Đường_@@ 21937
nhóc 22691
nước_@@ 21930
phi_cơ 21923
Lối 22870
ạch 22127
24,@@ 21913
bit 21980
cấp_thiết 21907
35.000 22417
mus 21905
_c@@ 21903
Thống 28352
ye@@ 21895
thuật_ngữ 21894
thước 26958
chúng_em 21885
Py@@ 21874
E. 21869
dương_tính 21864
365 22389
ty_@@ 21854
str@@ 21849
ster 21848
ngập_tràn 21846
wi@@ 21845
Gây 22696
LCD 21966
ị 21862
Thành_tích 21838
Nhu_cầu 21831
liều_lĩnh 21822
tua 22245
Vườn_quốc_gia 21813
20/10 21835
Đinh_Văn_@@ 21808
vui_lòng 21805
Đồng_Văn 21800
chích 22645
Chạy 22509
nes@@ 21794
cao_@@ 21792
quốc_dân 21789
Hương_Khê 21788
02@@ 21782
hay_là 21781
1940 21891
dải_phân_cách 21779
giao_ban 21779
cung_điện 21776
Tuyết_@@ 21775
công_ăn_việc_làm 21773
gương_mẫu 21767
Bá@@ 21764
Bánh 22816
cứu_chữa 21747
ant 21747
gắng 33602
Bos@@ 21742
du_học_sinh 21739
PPP 22374
bã 22560
bổ_dưỡng 21727
bản_năng 21727
ve_@@ 21727
cưỡi 21960
Ấy 22324
mịn_màng 21724
Thức 22466
Dịp 22479
áp_thấp 21716
hoà_hợp 21715
New_@@ 21714
33@@ 21705
Park_@@ 21703
ì@@ 21698
NSNN 23565
Mi 22685
ing_@@ 21696
hiệu_năng 21696
Ấn_Độ_Dương 21688
bố_con 21687
Sân 23625
VH-TT 21755
mỏi 25066
Đàm 23720
bền_bỉ 21677
sàn_diễn 21676
R.@@ 21675
đôla 22044
Nông_thôn 21670
Cai_Lậy 21668
Trần_Quang_@@ 21668
Poly@@ 21660
chôn_cất 21658
ường 21649
vin@@ 21644
Minh_Đức 21641
Thôn 22217
vài_ba 21633
trailer 21930
run 22132
ula 21627
Lĩnh 24387
yêu_sách 21619
22,@@ 21616
gập 22246
IC 21679
vô_hình 21614
lis 21614
5-6 22032
Type 21835
Đa_@@ 21608
ie 21613
Bán 22851
cựu_chiến_binh 21606
bạch 46159
xen 23244
Ngô_Văn_@@ 21601
nguyên_bản 21600
núi_rừng 21600
nan 23752
Văn_Toàn 21597
art 21645
ev@@ 21590
thường_kỳ 21589
cắp 26305
AT 21851
giám_đốc_điều_hành 21574
10/2016 21577
Phát_ngôn_viên 21572
con_bé 21570
ệ 21569
Sky@@ 21566
sách_vở 21565
kỳ_cựu 21564
Jakarta 21794
Angela_Merkel 21546
tê_liệt 21545
tôn_tạo 21542
3-5 22331
sói 21895
ưu 47736
Van_Persie 21529
tuỳ_tiện 21529
thơ_mộng 21519
idi@@ 21519
mau 22125
Thẩm_phán 21513
công_nhân_viên 21512
đo_lường 21512
ez 21511
tư_thục 21510
bất_hợp_lý 21509
rắc 23474
Tú_@@ 21506
nước_lớn 21506
Mekong 21627
tâm_điểm 21505
Mộc 23880
atus 21500
tre@@ 21496
đo_đạc 21496
Đại_Tây_Dương 21490
IM@@ 21490
cau 25125
ze 21478
nội_soi 21478
Di_@@ 21473
Ty@@ 21469
Sav@@ 21467
yc@@ 21457
Than_Quảng_Ninh 21444
Xương 21836
tru@@ 21439
9h 21997
vô_sinh 21435
25-@@ 21432
_d@@ 21428
2022 22958
25.@@ 21412
roi 21739
Suối_@@ 21408
Tống 22625
ce_@@ 21407
Số_liệu 21404
bán_trú 21402
28,@@ 21401
phân_tử 21400
nhập_ngũ 21398
Làm_sao 21394
Phạm_Ngọc_@@ 21394
đăng_nhập 21389
You@@ 21387
đôi_lúc 21380
way 21377
Baltic 21476
sắc_lệnh 21374
ekip 22148
giống_hệt 21368
nở_rộ 21366
đường_đua 21365
128 21794
mặc_định 21357
mộc_mạc 21357
hình_như 21356
Hải_Vân 21351
cưỡng_hiếp 21347
cai_trị 21341
Lăng 22300
dạ_hội 21329
đạo_luật 21328
9/2018 21412
UB@@ 21325
sinh_mạng 21319
tổng_@@ 21319
IP 21796
1/201@@ 21313
tàu_bay 21312
MS 21347
Ngữ_văn 21305
Huấn_luyện_viên 21299
230 21842
26,@@ 21296
mênh_mông 21295
GHz 21504
tí 22074
ei 21529
cạn_kiệt 21277
sát_sao 21272
tỉ_phú 21272
tablet 21326
Ea_@@ 21266
190 21481
thất_thường 21261
Hắn 21453
bắt_chước 21257
giỗ 22029
nhất_quyết 21250
04@@ 21249
Gre@@ 21247
Nhạc 22662
khét_tiếng 21242
King 22350
đi_sâu 21237
100@@ 21233
Sanchez 21423
Son@@ 21229
Sen@@ 21227
hải 34247
GiadinhNet 21222
M-TP 29549
kinh_khủng 21218
Trân 21504
dong 21878
Kor@@ 21215
xe_cộ 21213
Thanh_Thảo 21207
vuốt 21535
trai_trẻ 21205
Hoàng_Yến 21200
Van_@@ 21196
sơ_kết 21194
5/2018 21215
đơn_thân 21185
biên_kịch 21185
Gro@@ 21173
Thành_Công 21172
hào 30521
Thu_Hà 21165
khoáng 25136
tic@@ 21162
nội_lực 21160
kẽ 22415
Nhà_lãnh_đạo 21156
rát 21641
Bồ 22989
Juve 21388
danh_nghĩa 21141
David 22743
Smith 21479
Út 21526
Nậm_@@ 21127
SCIC 21153
Tan@@ 21123
Shar@@ 21123
SO@@ 21119
Cát_@@ 21116
Vành_đai 21112
7/2018 21189
Ngoại_ngữ 21101
quý_báu 21097
mớ 21938
Mường_@@ 21092
lừa_dối 21087
phát_điện 21082
xà_phòng 21081
Phương_Thảo 21078
99% 21578
rằm 21356
rèn 25875
khác_nào 21072
biến_hoá 21071
Tam@@ 21069
KSND 22909
TB 21165
than_thở 21065
thiện_chí 21052
nhà_xuất_bản 21048
trọng_tải 21046
tầm_cỡ 21044
thuốc_nổ 21041
Tom_@@ 21030
Telegraph 21237
Trương 27174
bộ_nhớ_trong 21016
pho 21169
pháo_binh 21009
0-1 21481
dụ_dỗ 21006
bị_động 21001
bánh_kẹo 20997
Thu@@ 20996
khoét 21217
derby 21717
Phương_Thanh 20994
ứng_cứu 20994
Hạnh_@@ 20993
IS@@ 20992
một_triệu 20990
Bí_quyết 20983
súng_máy 20981
ngoại_hối 20981
Bashar 20987
at_@@ 20976
mong_mỏi 20974
Thu_nhập 20968
phổ_cập 20968
Diệp 21738
hải_đảo 20963
per 20987
hạ_lưu 20961
lừng_danh 20958
United 23253
nhanh_nhẹn 20955
George 21752
hùng_vĩ 20952
55@@ 20951
Sunderland 20950
thiêng 22148
ngũ_cốc 20933
cao_ốc 20932
bảo_thủ 20929
48@@ 20928
25,@@ 20925
ila 20917
đồ_sộ 20911
trưng_cầu_dân_ý 20911
SX 21010
ice 20910
nồng_nhiệt 20907
Snapdragon 21760
trấn 33840
10/2018 21055
et_@@ 20902
XIII 22483
ANTT 21349
Diễn_Châu 20894
Tàu_ngầm 20891
Viết 22433
VAT 20967
tình_tứ 20886
â@@ 20886
số_hoá 20879
chứng_bệnh 20876
tinh_hoa 20876
Phương_Nga 20875
dang_dở 20873
đô_thị_hoá 20866
Ze@@ 20859
j 20857
dậy_thì 20856
Ô_tô 20856
thun 21414
Tổ_hợp 20850
súng_trường 20847
Quốc_Oai 20845
4/2018 20909
rin@@ 20841
sát_cánh 20833
nang 21252
Sự_cố 20827
nh-@@ 20827
trắng_tay 20820
Đông_Ukraine 20820
Rio 21052
Rạng 21441
Torres 21351
vui_nhộn 20815
SVĐ 20924
FTA 21212
ban@@ 20810
Con_người 20809
Fed 21098
Chín 21787
und@@ 20804
Thơm 20923
Note 22007
Địa_lý 20793
ký_hiệu 20788
Park_Hang_Seo 20784
Đẩy_mạnh 20782
võ_sư 20782
hệ_quả 20781
tò_vò 20778
thương_yêu 20777
Hạng 21499
đẹp_đẽ 20772
chồng_chéo 20769
ngừa 27962
cản_phá 20761
Land 22078
trường_quay 20759
Thương_hiệu 20758
tần 25078
bệ_phóng 20754
áo_@@ 20749
Thôi 21124
chủ_nợ 20747
phân_định 20747
tìm_tòi 20746
khác_thường 20740
Hợi 22337
sắp_đặt 20735
bor@@ 20734
Quảng_Đông 20727
Trang_phục 20725
GPS 21004
Jerusalem 20785
eni@@ 20718
cha_ông 20708
bức_xạ 20705
Steve_@@ 20699
thuế_quan 20693
Erdogan 20739
bình_dị 20688
h3 20687
tel@@ 20685
ame 20685
Hạnh_phúc 20684
Bat@@ 20683
TN-MT 21053
Mê_Linh 20679
VCCI 21098
nhiễm_bệnh 20671
tối_tân 20670
Plaza 20834
PV@@ 20665
Đời 21066
giường_bệnh 20660
phản_xạ 20659
ud@@ 20658
àn 20704
Tình_báo 20653
27,@@ 20652
chiếm_giữ 20649
cứu_thương 20648
hoà_tan 20645
dẫu 21351
Cần_Giờ 20640
phạt_đền 20628
h00 20616
phổ 41092
trung_hạn 20612
1947 20684
Cung_@@ 20607
Đơn_giản 20607
Fin@@ 20604
ona 20603
nhà_phân_phối 20601
gen@@ 20597
Trái 24293
Ho 21913
Yamaha 20911
08@@ 20586
Hải_Yến 20581
enko 20579
trọng_thương 20578
địa_ốc 20575
n. 20573
Jones 21253
nhà_văn_hoá 20569
ene 20562
chính_thống 20562
buồng_trứng 20561
ba_@@ 20561
phim_trường 20560
line 20642
Ngọ 21313
mồm 20981
giáo_dục_phổ_thông 20550
phôi 21312
hệ_miễn_dịch 20545
kìm 21240
ác_mộng 20538
@@@ 20534
Cầm 21119
Chí_@@ 20532
Ô@@ 20530
800.000 20756
Mẫn 21458
n_l@@ 20522
Vượng 22448
Cảng_hàng_không 20510
chớp 21395
thói 26299
quá_khích 20499
lạ_mặt 20491
cám_ơn 20484
ốt 20634
aj@@ 20480
quý_vị 20480
Kenya 20705
Không_khí 20475
phân_@@ 20470
hội_ngộ 20470
Cô_dâu 20460
ờ 20484
Bi 20839
Slovakia 20523
Saint-@@ 20447
ami 20442
Trà_My 20436
my 20525
gây_dựng 20430
thẻ_tín_dụng 20428
dàn_xếp 20428
chiến_công 20427
vi_rút 20426
11m 21491
nhiễm_độc 20422
Benzema 20711
im_@@ 20421
định_mệnh 20419
5. 20419
ti_vi 20416
Cre@@ 20415
ú@@ 20412
ess 20409
24h 21112
Viện_kiểm_sát 20407
cc 20409
bitcoin 20533
Thú_y 20396
tỏ_tình 20395
NS 20797
Minh_Châu 20390
ỉ 20829
Tiểu_đoàn 20386
ong@@ 20380
Tam_Kỳ 20375
Hiền_@@ 20373
Louis 21300
chủng 30733
Nguyễn_Thế_@@ 20371
Thuỵ 20368
Men@@ 20364
FI@@ 20364
DVD 20443
Hoàng_hậu 20348
NA 20386
hi_sinh 20345
120.000 20587
thời_thượng 20338
Đông_y 20330
logistics 21255
Báo_điện_tử 20326
Ma 22895
ô-@@ 20321
truyện_ngắn 20319
nã 20900
1.9@@ 20313
múc 21520
cơ_giới 20308
ABC 20685
Hội_đồng_nhân_dân 20299
5/2016 20349
19h 20560
7/2017 20320
sau_cùng 20297
Nghị 47620
104 20489
ky@@ 20295
Mai_Phương 20294
TNMT 20591
ngạt 20892
chánh 20763
lẩn_trốn 20280
bao_bọc 20279
Mạc_@@ 20277
6/2018 20383
mỹ_quan 20276
múi 23072
SDF 20453
xoa 21157
thường_lệ 20263
phù_thuỷ 20262
Str@@ 20257
nam_tính 20254
10h 20513
tha@@ 20251
ngành_hàng 20250
liên_hợp 20249
International 20741
học_kỳ 20246
trau_dồi 20245
xuống_nước 20240
kĩ_năng 20226
án_treo 20226
ùa 20457
Xu_hướng 20220
Ichneumonidae 20217
cổ_kính 20213
Quang_Huy 20208
ru 21076
Bay 20783
Sil@@ 20200
las@@ 20199
Sài 30801
awa 20196
tổng_lượng 20196
Phan_Anh 20194
Đám_cưới 20193
Trần_Thanh_@@ 20189
270 20632
Thu_Hằng 20187
The_Sun 20185
dạ 26386
U-@@ 20181
ji@@ 20176
bộ_xử_lý 20174
cà 31592
Fer@@ 20170
gian_nan 20166
116 20401
Thư_viện 20157
Thay_đổi 20157
Karnataka 20153
1.600 20471
sở_hữu_trí_tuệ 20150
1956 20189
liên_tưởng 20149
bất_chính 20146
Vui 20798
Valentine 20205
thọ 22535
formula 20142
nung 21372
nhà_bếp 20134
Thu_Hương 20132
ng.@@ 20128
trình_chiếu 20126
hối_thúc 20123
hoả 20123
kar@@ 20123
ato@@ 20116
na_@@ 20116
ẩu_đả 20112
6-3 20109
phóng_sự 20108
truy_xuất 20105
ette 20103
m-@@ 20102
Kế 26327
Tôn_Đức_Thắng 20101
ậu 20100
mong_ước 20098
9/2016 20166
búa 20721
điện_đàm 20091
Raqqa 20208
Cơ_chế 20085
NT 20098
Quân_đoàn 20078
la_hét 20078
trọng_đại 20078
TCTD 20328
Mr. 20069
Bằng_chứng 20069
gội 20833
sta@@ 20060
liên_hoàn 20060
điều_tra_viên 20060
XX 20359
mạn 24641
máy_bơm 20053
VEC 20051
đồ_án 20048
Triển_khai 20044
hả 20833
niên_đại 20041
Tìm_kiếm 20041
ghen_tuông 20040
khay 21306
Quán_quân 20039
N1 20031
nhãn_mác 20030
Chuyển 21304
kế_nhiệm 20029
Gr@@ 20022
rổ 21440
Dũng_@@ 20009
lor@@ 20009
mất_giá 20008
vị_thành_niên 20008
chống_chọi 20003
chiến_sự 20002
Mos@@ 20001
chậm_chạp 19999
giày_dép 19997
bồi 30893
NVCC 20480
team 20255
biên_tập_viên 19987
ông_già 19984
êm 20868
trầm_trồ 19980
một_@@ 19978
Bluetooth 20193
Cô_giáo 19975
Đưa_Tin 19973
Brasil 20074
ca_@@ 19970
Sửu 20658
bán_kính 19963
status 20087
dạy_dỗ 19959
lịch_lãm 19956
Côn_Đảo 19950
sức_lực 19949
Ngư 21340
ym@@ 19942
hốt_hoảng 19941
thất_thu 19939
1944 19967
ther@@ 19939
bừng 20922
phong_cảnh 19937
soát 55817
Duy_. 19925
ren@@ 19924
Rừng 20166
eo_biển 19907
Mặt_trời 19904
Game 20296
8/2018 20078
biểu_quyết 19899
danh_ca 19899
Hy 22812
1/10 20003
dao_kéo 19897
cuốc 20055
Trần_Minh_@@ 19895
260 20474
Quỳnh_Anh 19895
Maps 19932
nức_nở 19894
Bắc_Cực 19893
Chris_@@ 19891
riêng_lẻ 19889
ng. 19888
dor@@ 19887
Thế_Giới 19884
quyết_đoán 19882
UN@@ 19882
cuống 20393
khổ_sở 19880
Tech@@ 19876
Lê_Lợi 19871
chiều_qua 19863
Thì 20617
Bảo_hiểm_xã_hội 19849
1955 19847
đăng_kí 19842
Diễn_biến 19842
6/2016 19853
xịn 20204
Phản_ứng 19837
2,7 20168
Thanh_Hải 19831
lượn 22287
Balotelli 19833
ris 19820
iền 19823
Khảo_sát 19809
Shin@@ 19807
ser@@ 19805
you 20470
Bắc_Từ_Liêm 19800
Petrolimex 19924
sơ_cứu 19785
Mai_Phương_Thuý 19785
Mặt_Trời 19784
Disney 20203
Gửi 20057
ngày_sinh 19779
Mỹ_Đức 19777
TA 19775
trồng_trọt 19765
Il@@ 19764
je@@ 19764
RIA 19904
tháo_chạy 19761
sờ 20163
phy@@ 19756
khá_giả 19755
xuất_huyết 19752
trổ 21177
tối_ưu_hoá 19751
Hàm_@@ 19749
megapixel 19871
trăm_ngàn 19748
3,2 20058
Express 20466
cối 20376
thất 40706
xem_ra 19734
lạ_lùng 19732
Pho@@ 19725
Kỳ_Sơn 19723
ant@@ 19717
VHTT 19813
kiều_bào 19713
1941 19720
phái_đẹp 19708
pl@@ 19708
khởi_nghĩa 19708
khủng_hoảng_kinh_tế 19700
illa 19698
AB@@ 19697
hoá_ra 19697
tr 19724
con_dấu 19693
Hàng_hải 19683
Ol@@ 19677
Khó_khăn 19677
Cat@@ 19676
mời_thầu 19676
Động 24044
mãn_tính 19672
Kim_Liên 19667
est 19664
ngời 20380
hiện_giờ 19660
startup 20060
kiểm_dịch 19656
Silva 20018
đánh_đổi 19652
Hậu_@@ 19648
ăn_kiêng 19645
Xung_quanh 19644
trung_học_phổ_thông 19643
Tiêu_chuẩn 19639
ga@@ 19634
phù 49765
vest 20075
TO@@ 19628
Jan@@ 19627
săn_lùng 19625
cấp_điện 19624
Cảnh_báo 19622
ba_lô 19622
soái 20108
Thời_@@ 19618
R. 19611
tài_khoá 19610
Hoà_bình 19609
giao_thương 19604
in-@@ 19600
thoái_hoá 19600
Thực 32096
Đồng_Hới 19595
đôi_chút 19593
NT@@ 19593
Đồ 20306
5/201@@ 19588
5-7 20857
vũ 37563
1957 19605
thẳm 20067
tuýp 19771
,@@ 19577
đau_nhức 19574
bé_nhỏ 19568
TL 19899
Nghĩa_là 19567
8/201@@ 19566
io 19565
ngậm 20425
16-@@ 19562
Dậu 20090
Giáo 29869
Doanh 25546
tiêu_hao 19552
thù_lao 19543
eo_@@ 19543
vỗ_tay 19539
1942 19538
Thái_Hoà 19536
hoành_hành 19535
điểm_sàn 19535
San_Francisco 19533
James_@@ 19531
don@@ 19528
hòng 20076
Phương_Nam 19521
100m 19685
ổng 20126
Cle@@ 19514
thiện_cảm 19514
Nam_bộ 19511
Doanh_thu 19510
biến_áp 19509
BLHS 19628
SP 19527
địa_vị 19506
cõi 20028
Ken@@ 19501
Nữ_sinh 19491
cam@@ 19490
1m 19680
niêm_phong 19489
Vi_phạm 19489
thiệp 23255
Phân_@@ 19478
ura 19476
Hương_Sơn 19476
CV 19473
tiếp_quản 19471
hiệp_sĩ 19467
hình_mẫu 19464
tróc 19689
bảo_kê 19461
Cer@@ 19459
Lê_Ngọc_@@ 19457
war@@ 19456
Đẹp 19732
giác 33568
Vai 20413
hoá_giải 19439
nga 19667
Lexus 19677
ob@@ 19421
nam@@ 19421
dò 21899
sảnh 21669
Đánh 21686
èn 19398
22% 19729
Watch 20259
BTS 22458
cá_voi 19392
bao_cao_su 19391
_nh@@ 19390
khôn 25864
phân_khối 19389
Ob@@ 19385
vui_tươi 19384
tội_lỗi 19384
Phân_tích 19384
Xuân_Mai 19379
chồng_con 19378
thực_địa 19375
thiếu_vắng 19373
von 20101
kiệt_sức 19369
chí@@ 19365
House 19712
VIII 19676
You 20310
giải_nghệ 19346
Khiêm 20373
xưng 21473
khiêu_dâm 19329
từ_trường 19329
ill 19323
biết_đâu 19320
i_th@@ 19318
2,8 19978
mẩu 20120
Fran@@ 19313
Hoa_Đông 19309
nách 19911
Sầm_Sơn 19301
ò 19311
Rêu 19311
đậy 19738
Hitler 19325
rào_chắn 19292
Cư_dân 19289
phim_tài_liệu 19284
đi_@@ 19282
den@@ 19281
Bol@@ 19281
175 20130
gia_dụng 19275
VII 19421
pháp_y 19266
xo@@ 19263
Chicago 19701
Ancelotti 19380
dy_@@ 19254
yen 19508
Thị_trưởng 19248
Dịch 28262
phê 41342
Bou@@ 19240
Metro 19552
ado@@ 19234
Jackson 19426
mày_râu 19232
8h 19850
Loạt 19766
chân_váy 19221
khó_lòng 19217
Max 20206
Met@@ 19214
ó@@ 19209
Cái_@@ 19205
ng_tr@@ 19201
om 19345
tự_động_hoá 19199
Thừa_Thiên-Huế 19199
112 19460
gộp 19607
TIN 19353
James@@ 19192
my@@ 19191
di_@@ 19183
Lợi_nhuận 19183
David@@ 19182
San 20797
HNM 19181
máy_tính_xách_tay 19178
Sor@@ 19178
G-@@ 19176
F-16 19274
đặc_hữu 19168
hội_hoạ 19168
ky 19183
chuyên_mục 19163
Nói_chung 19159
tiền_lệ 19156
che_chắn 19154
cưỡng 21496
ka_@@ 19151
guitar 19206
zh@@ 19147
viễn_cảnh 19142
Giám_khảo 19140
sỹ 26545
đại_chiến 19125
cám 20350
bóng_tối 19113
nhân_@@ 19109
Công_lý 19108
Richard_@@ 19108
đầu_độc 19107
tiếp_tay 19106
2/2017 19104
Hang-seo 19357
Quang_cảnh 19099
1.400 19463
Anh_chàng 19091
ế@@ 19089
Kra@@ 19084
Ia_@@ 19084
VĐQG 19471
giải_thoát 19082
kỳ_tích 19080
hễ 19319
triệu_hồi 19073
Op@@ 19072
Cố_vấn 19071
Murray 19085
Kha 19468
Xí_nghiệp 19064
tar 19064
giăng 19361
Wayne_Rooney 19050
thực_thụ 19048
Auto@@ 19046
xoăn 19597
cúc 19874
Duy_Tân 19039
Cook 19105
rượt 19706
cy@@ 19027
tráng 20902
bưu_chính 19024
Bão 19556
nhờn 19247
cấu_thành 19012
pixel 19157
s-@@ 19010
công_lý 19009
cel@@ 19009
Võ 28323
mờ_nhạt 19005
Quang_Lê 19004
Bãi_@@ 19002
công_lao 18998
dưa_chuột 18995
Beckham 19260
Nghị_viện 18985
League 23075
lấy_làm 18983
hoàng_hậu 18979
đánh_ghen 18976
thông_suốt 18975
5G 35092
6-4 18981
2,6 19684
Liễu 19631
thường_vụ 18946
ons@@ 18946
ind@@ 18945
Hymenoptera 18945
Bạc 22186
sinh_tố 18941
PA 18967
Xuất_khẩu 18937
370 19137
tổ_ấm 18926
phát_âm 18925
Có_mặt 18925
thăm_quan 18923
vi_xử_lý 18921
chát 19110
liệu_pháp 18919
thủ_thuật 18918
ise 18917
én 20126
ben 19887
ép_buộc 18914
Grand_Slam 18913
ron 18954
hào_quang 18907
có_hạn 18906
bén 21090
nạc 19427
Thuỳ_Dương 18904
1/6 19079
quốc_nội 18902
Hổ 19468
giả_vờ 18899
PGS-TS 19431
Diễn_@@ 18895
mann 18892
ốm_đau 18888
đế_chế 18886
Ferguson 18950
khí_tượng_thuỷ_văn 18882
4-1 19784
7-8 19554
wan 18875
rung_động 18867
i_C@@ 18865
ự 18867
truy_cứu 18862
Dell 18945
tra_cứu 18860
bóng_bàn 18859
chân_chính 18857
ưu_việt 18854
Pap@@ 18851
thượng_nguồn 18850
ư@@ 18849
fe@@ 18849
Màu_sắc 18844
thi_thoảng 18844
choáng 20041
cương_quyết 18841
on-@@ 18833
trí_tuệ_nhân_tạo 18832
nặng_ký 18832
Tiểu 27523
rơm 19546
mỹ_nghệ 18823
lựu 19574
thái_quá 18820
sở_dĩ 18815
sưa 19143
Hyundai 21079
Thường_Tín 18809
cõng 21873
Võ_Thị_@@ 18804
Tai_nạn 18804
Mul@@ 18802
an_táng 18801
Huỳnh_Văn_@@ 18799
_s@@ 18796
ực 18800
chênh 22132
áp_suất 18785
Viện_Hàn_lâm 18782
TKV 18798
Lan_Anh 18769
dồn_dập 18767
field 18767
Phong_cách 18766
Algeria 19070
W. 18761
cán_sự 18760
Á_quân 18757
ny 19204
_m@@ 18755
Hành_chính 18755
Trí_@@ 18753
Arsene_Wenger 18752
CL@@ 18748
Kevin_@@ 18741
tổng_tài 18740
biết_bao_nhiêu 18739
cầu_lông 18731
bur@@ 18730
Khí_tượng_Thuỷ_văn 18726
châu_Mỹ 18725
làm_quà 18721
hoạt 124884
E.@@ 18718
Thỉnh_thoảng 18714
Vnexpress 18832
6/201@@ 18709
di_dân 18704
style 19125
hành_tây 18701
card 18817
Bình_Sơn 18693
nhỏ_tuổi 18690
Phạm_Bình_Minh 18687
chứng_thực 18676
Amsterdam 18930
ran 19953
Đối_thoại 18669
nước_ngầm 18665
Phổ 19542
giải_mã 18663
ku@@ 18663
VIDEO 18836
Dailymail 18687
4/201@@ 18658
chuẩn_xác 18657
k_S@@ 18657
sinh_@@ 18647
rảnh 19306
tuyên_dương 18639
tehsil 18639
U-23 18691
Khải_@@ 18637
Nữ_@@ 18637
xoa_dịu 18633
29,@@ 18632
m_t@@ 18632
ace 18630
14-@@ 18630
rỉ 19934
Vit@@ 18626
ase 18620
4h 18783
phồng 20192
1.800 19537
co_giật 18599
truyền_nhiễm 18597
sải 19097
500@@ 18594
tự_trị 18593
Sợ 18906
đế_quốc 18591
Điều_kiện 18590
Kiểm_lâm 18590
N.T.@@ 18589
n_đ@@ 18589
penalty 19444
Trúc_@@ 18585
sơ_hở 18585
BĐ 18937
Entertainment 19293
Su-35 18622
nhắn_nhủ 18578
hôn_lễ 18577
biên_độ 18575
Quốc_vương 18575
Kon@@ 18573
vis@@ 18568
pha_trộn 18568
Văn_Quyết 18563
IBM 18565
la_@@ 18553
Ngô_Thanh_Vân 18547
tài_hoa 18545
Phi_Thanh_Vân 18538
Cro@@ 18533
ture 18530
Vỹ 19652
Ang@@ 18522
Hay@@ 18522
8/2016 18603
NE@@ 18516
Cầu_@@ 18515
Lại_@@ 18511
nghiêm_cấm 18505
AD@@ 18504
đường_ray 18500
47@@ 18500
link 19364
sạp 18730
bảo_toàn 18498
as_@@ 18496
tiếng_vang 18492
Vô_địch 18490
công_tố 18487
tặc 19117
4/2016 18494
Sam_@@ 18485
An_Phú 18483
Sin@@ 18482
chuộng 20499
Bởi_thế 18479
37,@@ 18474
7/2016 18488
trung_niên 18471
Cựu_@@ 18468
ướng 18472
IX 19292
cảm_tình 18464
Quay 19063
toà_soạn 18459
Bà_Rịa-Vũng_Tàu 18456
Boo@@ 18454
Thuận_An 18450
us_@@ 18449
Av@@ 18448
p-@@ 18445
Như_@@ 18444
hất 18860
Tần 18829
tam_giác 18431
Diễm_Hương 18431
Hội_@@ 18429
Kal@@ 18429
phi_pháp 18427
Nat@@ 18424
lên_lớp 18423
mui 19204
3/2016 18424
Trịnh_Công_Sơn 18418
cũ_kỹ 18418
lên_xuống 18418
thần_kỳ 18417
thăng_tiến 18416
quý_tộc 18415
L-@@ 18411
19-@@ 18408
Trà_@@ 18407
phân_tán 18407
kiểng 18554
tham_chiếu 18403
sa_@@ 18400
Võ_Nguyên_Giáp 18395
bao_cấp 18392
òng 18389
QLTT 19357
Gọi 18676
bolero 18490
SA@@ 18380
Tour 18767
280 18884
Tự_@@ 18376
Hồng_Vân 18374
tiếp_sức 18370
LĐ-TB 18370
metro 18725
21,@@ 18366
Y_học 18366
Du_@@ 18359
mướt 18643
F. 18358
bất_động 18358
Williams 18704
hoá_thạch 18353
Phấn 19079
điếu 18752
Nét 18844
bình_an 18352
n_tr@@ 18350
Sắc 19877
_r@@ 18347
icus 18345
buông_lỏng 18344
Sri_Lanka 18343
kết_tội 18343
Liên_Chiểu 18341
Thạch_Thất 18340
Khai_thác 18338
SI@@ 18337
Cảm_giác 18336
w_@@ 18333
SD@@ 18329
triệu_phú 18327
can_đảm 18325
toàn_vẹn 18322
khiển_trách 18320
Cổ_phiếu 18320
AM 18351
tậu 19616
ne_@@ 18312
46@@ 18311
trữ 26737
ese 18308
John_Kerry 18302
Cộng_hoà_Séc 18302
Công_chúa 18300
càng_ngày_càng 18296
bão_hoà 18295
30,@@ 18295
ất 18294
solo 18775
— 18290
Nar@@ 18285
lạ_mắt 18280
tái_thiết 18279
SS 18343
rảnh_rỗi 18276
chà 18798
Gareth_Bale 18275
Đậu_@@ 18274
kèo 18608
Kat@@ 18266
máy_@@ 18263
ee 18263
trung_đoàn 18261
Bằng_@@ 18260
HĐ@@ 18256
phớt_lờ 18256
đánh_thức 18247
sống_còn 18246
Thượng_đỉnh 18245
Business_Insider 18245
BO@@ 18242
nhét 18682
Bùi_Tiến_Dũng 18237
trắc_nghiệm 18237
Nhàn 19998
biết_điều 18230
đậu_nành 18229
our 18229
lo_âu 18226
NNPTNT 18434
Trường_Chinh 18225
trêu 19108
Giải_thích 18223
Mai_Tiến_Dũng 18214
nguỵ_trang 18213
giông 19431
tz 18212
ảm_đạm 18212
túi_tiền 18211
dụ 24599
mượt 18660
nhật_ký 18202
Time 18551
Giấy_phép 18201
Bọn 18377
đi_nữa 18194
Da 19355
cần_sa 18190
phụ_giúp 18188
mặt_khác 18185
Resort 18665
chiếm_lĩnh 18183
song_sinh 18182
Vinaconex 18506
rộn_ràng 18177
9x 19002
Porsche 18802
súp 18874
Đạo_@@ 18167
xung_phong 18163
Lựa_chọn 18155
khiếm_khuyết 18152
Cổ 25049
1953 18155
mb@@ 18149
nhập_cuộc 18147
Paul 18735
Diễm 19237
cá@@ 18144
Chờ 18400
là@@ 18142
Virginia 18493
tiếp_giáp 18137
Hyundai_@@ 18135
cất_giấu 18133
chuyên_dùng 18130
Cử_tri 18127
né 18943
lợp 18332
21h 18669
lăng_mộ 18119
KTS 18372
vẫy 18344
gò 18939
tu_bổ 18116
chân_thật 18116
Aston_Villa 18116
chiếm_dụng 18114
toàn_cảnh 18108
lối_thoát 18107
hạn_mức 18105
Tây_Tạng 18104
Gã 18524
lầy 18526
Wall 19099
chính_khách 18100
đơn_giá 18100
sáng_suốt 18099
Cos@@ 18099
Cam 20334
bốc_lửa 18097
Nền 19538
Angelina_Jolie 18095
ổ_cứng 18092
Bkav 18135
khảo_cổ 18083
thóc 19127
pha_chế 18074
Viễn 20717
Bất_cứ 18071
ate@@ 18071
Catalan 18569
In 19290
á_quân 18059
4.500 18347
trứng_cá 18057
Canh 18461
lỗ_chân_lông 18052
Chứng_kiến 18051
tạp_hoá 18043
săn_đón 18040
x_@@ 18038
Bình_luận 18031
bank 18042
Asia 19206
đột_kích 18026
Tôn 20287
thở_dài 18024
ham@@ 18021
hồ_tiêu 18018
11.000 18797
Trung_Nguyên 18016
mùi_vị 18012
Series 18669
Làm_việc 18000
17h 18510
lý_lịch 17999
Ev@@ 17995
Kas@@ 17994
3/201@@ 17990
Sâm 18659
h45 17986
Thủ 57591
bèo 18643
BC 17981
Pat@@ 17974
New_Delhi 17972
o-@@ 17970
su 22497
ùng 17982
triều_cường 17965
Vào_khoảng 17964
h_@@ 17963
bon 18246
126 18181
Lyon 18036
_kh@@ 17946
Diện 19070
năm_xưa 17944
ros@@ 17941
Taylor 18392
nhấn_chìm 17939
ush@@ 17934
0-2 18177
chỉn_chu 17933
fer@@ 17933
Grand_@@ 17933
HD@@ 17930
QĐND 18348
Toản 19252
Bất_@@ 17923
da_màu 17923
ADB 18079
tinh_xảo 17921
8,5 18215
ph 17945
bệ 18715
cap@@ 17907
tống_tiền 17906
đeo_bám 17905
Xi@@ 17904
Gia_Định 17904
sâu_bệnh 17900
Czech 18005
nhang 18294
đại_đoàn_kết 17893
Tú_Anh 17893
tê 19344
ok 17906
hạt_tiêu 17884
Lâu 18463
123 18107
Qualcomm 18679
suy_dinh_dưỡng 17872
24-@@ 17871
gia_tộc 17865
phi@@ 17860
tươi_đẹp 17858
Thân_@@ 17855
ini@@ 17854
lãnh_tụ 17853
thuyết_trình 17851
ăng_@@ 17850
bỏ_túi 17845
đan_xen 17836
tê_giác 17834
thảm_khốc 17828
thân_mềm 17828
flash 17944
Mường 19748
te_@@ 17822
Tro@@ 17822
Phối_hợp 17820
ion 17974
thực_lực 17816
Pl@@ 17815
luân_phiên 17808
-2 17816
gameshow 18180
Cá_nhân 17801
Hiệp_@@ 17798
88@@ 17792
thôi_việc 17788
đắc_lực 17782
làm_khó 17779
hành_quyết 17778
Gil@@ 17776
lam@@ 17770
đính_hôn 17770
đúng_mức 17762
3,4 18016
Phật_@@ 17758
xà 21046
giả_định 17754
Vinashin 17751
MO@@ 17749
mơ_hồ 17746
Mak@@ 17745
hưởng_thụ 17744
BRT 17787
3.0 17872
IP@@ 17741
35,@@ 17737
Guardiola 18510
700.000 18113
rau_muống 17735
Lê_Xuân_@@ 17728
ăn_chay 17728
Bách 19247
viêm_nhiễm 17724
Vũ_khí 17719
Lê_Hồng_@@ 17718
ster@@ 17717
Dạy 17815
nhập_siêu 17710
tiêu_đề 17710
Trứng 18294
Ngô_Quyền 17700
khuấy 18292
Quỳnh_Lưu 17698
Lar@@ 17697
Taylor_Swift 17689
ninh 40794
cửa_kính 17688
ngất_xỉu 17684
cáp_quang 17679
sơ_chế 17678
06@@ 17677
có_lý 17670
55% 17879
Windows_Phone 17667
UBKT 17945
Chân_dung 17662
Ven@@ 17661
đậu_xanh 17659
thạch 19644
Đắc_@@ 17652
Kpop 18676
Trắng 19047
Peter@@ 17650
nho_nhỏ 17650
MA@@ 17648
Sức_mạnh 17647
Hazard 18014
4-0 18016
P.V. 17641
thượng_lưu 17641
gian_khổ 17637
210 18072
lạ_lẫm 17634
concept 18364
trên_hết 17624
đầu_óc 17624
AVG 17656
dị_vật 17621
Phát_@@ 17619
vừng 18760
trú_ẩn 17617
cổ_thụ 17616
xúc 45256
thúc_giục 17614
khí_quyển 17613
cây_xăng 17613
Lan_Hương 17611
ê_kíp 17610
huyền_bí 17607
TI@@ 17605
tam@@ 17604
Hát 17891
tiền_lẻ 17599
quận_huyện 17590
tàn_bạo 17585
mí 18454
Dol@@ 17583
Mạng 18857
nồng 20193
RO@@ 17574
muôn 18435
Chứ 17809
i.@@ 17568
cấu_tạo 17567
let 17566
ngoại_quốc 17561
sát_hạch 17559
áo_tắm 17550
Love 18034
chòi 17845
tài_lộc 17549
lúa_gạo 17548
Góc 18325
thể_hình 17541
iêu 18464
IPO 17938
xạ 19423
32@@ 17536
làm_vậy 17534
elli 17533
gar@@ 17532
Tạm 18066
thị_lực 17530
Hứa_@@ 17528
QLDA 17689
đổi_thay 17524
FED 17640
Minsk 17528
97% 17686
cus 17515
chệch 17939
lì_xì 17511
Kim_Jong_Un 17508
onia 17507
thờ_cúng 17506
kĩ 19683
ượng 17505
ence 17502
Tĩnh 28574
2m 17886
xì 17719
ac 17500
tệ_hại 17494
Tr 17586
thai_phụ 17489
Fabregas 17488
Dương_Văn_@@ 17484
KT@@ 17483
thản_nhiên 17479
Lam_@@ 17478
Khánh_Ly 17477
hoạt_chất 17477
định_kiến 17476
tạo_lập 17476
Cẩm_Phả 17474
kinh_nguyệt 17470
Bạch_Dương 17468
đái_tháo_đường 17468
nhượng 24081
Đứa 17680
ski 17464
Phú_Lộc 17463
ó 17529
lựu_đạn 17460
mặc_cảm 17455
Ngô_Thị_@@ 17454
Chơi 17705
Khánh_Thi 17443
Công_nghệ_thông_tin 17437
Golden_@@ 17433
nám 17696
dân_chơi 17428
Chữa 17590
cây_ăn_quả 17427
túc_trực 17426
vô_@@ 17425
trường_lớp 17423
51% 17502
kịch_liệt 17421
Ngã 18624
Eri@@ 17418
lov 17417
Galaxy_@@ 17416
c_t@@ 17415
tường_thuật 17414
phi_thường 17413
xoè 17413
nước_rút 17412
Hoàng_Nam 17406
Kho 18521
Thượng_nghị_sĩ 17399
hoảng_hốt 17396
Đại_lộ 17395
109 17632
Tả_@@ 17393
cổ_xưa 17390
Hồ_Quang 17389
rẻ_tiền 17388
Lebanon 17407
trực_diện 17381
bấy_nhiêu 17379
Web@@ 17378
hồi_sức 17376
toàn_quyền 17376
Cộng 24033
chói 18251
kiên_định 17367
bận_tâm 17367
21% 17532
Tử@@ 17365
des@@ 17360
Telecom 17494
ard_@@ 17358
ko_@@ 17358
tan_rã 17355
Thanh_Chương 17352
GTGT 17553
Việt_Trì 17351
Kong 21740
đại_trà 17347
sổ_sách 17346
Giấc 17945
3/4 17542
Der@@ 17337
bra@@ 17337
Tân_Hiệp 17336
xe_lăn 17334
nem 18029
chăng 18922
ín 17325
khoái 17696
Quân_chủng 17320
Halloween 17350
Trở 19354
THX 17437
17-@@ 17314
Min 20067
Cười 17367
Thường_xuyên 17310
vũng 17811
bao_tải 17307
treo_cổ 17306
Hoà_Minzy 17305
Thực_sự 17303
67@@ 17302
Shu@@ 17301
công_năng 17301
Thao 18709
Som@@ 17298
mel@@ 17296
ký_túc_xá 17292
4K 17412
bởi_vậy 17291
1948 17299
11/2018 17452
trữ_lượng 17284
3,6 17499
Micro@@ 17279
rửa_tiền 17279
Hoàng_Thuỳ_Linh 17275
Lão 17718
điều_trần 17272
PT 17309
Hoá_học 17258
vệt 17449
Trao 22174
đi_đôi 17246
Ash@@ 17245
Đại_Dương 17245
13.000 17509
Tuy_Hoà 17243
vin 17418
khuyết 21148
bổng 20249
đảo_lộn 17237
hùng_mạnh 17236
vỗ 18730
ăm 17254
53@@ 17223
Pon@@ 17223
Phần_mềm 17221
Rolls-Royce 17724
bắt_nạt 17212
Latinh 17902
úng 19103
Trần_Đức_@@ 17208
truy_thu 17207
ato 17205
kết_bạn 17204
tháng_ngày 17200
bản_vẽ 17199
khắc_hoạ 17190
Rome 17354
đám_tang 17177
thân_phận 17176
Kinh_nghiệm 17175
dạt 18471
ad_@@ 17173
củ_cải 17172
a_t@@ 17172
có_một_không_hai 17171
ành 17169
cận_kề 17166
ka@@ 17164
Next_Top_Model 17160
Đẫy 18146
Ung_thư 17158
Core 17366
tại_ngoại 17156
nổi_danh 17156
OceanBank 17157
tố_chất 17154
chân_@@ 17149
Aguero 17315
thành_thạo 17148
do_@@ 17146
trọng_yếu 17144
1943 17140
CAQ 17457
đường_biển 17126
phóng_khoáng 17124
truy_quét 17122
ul 17121
Cel@@ 17121
ọ 17131
tình_ái 17119
Phân 19831
ại 17127
xí_nghiệp 17115
phong_bì 17113
The_Voice 17105
Trình 18218
chính_trường 17102
đau_thương 17101
Diệu 18446
Giúp 17474
SMS 17347
ngoan_ngoãn 17094
lông_mày 17092
vấn 78033
7/201@@ 17091
từ_khoá 17091
xét_duyệt 17088
điện_máy 17087
nôi 18215
nguyên_chất 17086
ent_@@ 17086
Thất_bại 17086
kết_nạp 17085
aga 17083
Tuổi_Trẻ 17079
107 17287
è 17074
lỗi_thời 17073
lén_lút 17071
lỡ_cơ 17070
ets 17064
ngửi 17368
Tường_@@ 17059
Cắt 17653
quá_sức 17058
Hiệu 20003
Huy@@ 17057
Hợp_tác_xã 17055
chơi_đùa 17048
gắp 17440
24/7 17321
xước 17358
thị_sát 17036
mẻ 19575
tion_@@ 17027
cher 17026
ý_nghĩ 17026
49@@ 17024
nhung 18950
23% 17401
tươi_trẻ 17021
tham_luận 17020
:30 17020
Hành_@@ 17020
mài 18043
Thanh_Lam 17018
LA 17047
Ký 17838
iết 17103
đại_sứ_quán 17009
vợt 19153
Độc_lập 17004
TĐC 17770
ở@@ 17000
hạt_nhân_hoá 17000
ngỡ 18720
Kiến_@@ 16997
khí_tài 16996
rỗng 17524
1920 17116
amb@@ 16983
Vol@@ 16982
Vietjet 17458
HH 17094
kinh_đô 16974
ô_@@ 16974
vàng_bạc 16974
Af@@ 16972
khủng_long 16972
bàn_luận 16972
lỏng_lẻo 16971
Cửa_Lò 16964
tóm 18613
trơ 17387
mật_thiết 16958
al-Assad 16962
bình_@@ 16956
ọc 16956
Lục_quân 16952
Motorola 17161
Thanh_Thuỷ 16950
phế_quản 16950
Hoà_Lạc 16950
Ngày_xưa 16948
Láng 17215
cơ_quan_chuyên_môn 16945
tỵ 17256
7h 17480
LI@@ 16940
S7 16981
Trung_Hiếu 16938
ĐTDĐ 17199
thực_nghiệm 16928
tĩnh_mạch 16919
Hán_@@ 16917
tuổi_đời 16915
Gái 17068
Khai_@@ 16912
Leicester_City 16909
ray 17322
địa_ngục 16904
nghiệm 65104
Ánh_@@ 16900
155 17157
đường_vành_đai 16897
triển 174427
PLO 17132
Quảng_Châu 16889
Vô_@@ 16889
18.000 17096
65@@ 16885
Anh_em 16884
ett 16884
a_đ@@ 16883
DS 17157
Hải_Nam 16881
đương_đầu 16879
book 17068
nói_thẳng 16878
Las_Vegas 16876
đương_nhiệm 16875
phá_bỏ 16874
Ohio 17186
phiến 17215
QL1 16999
tuột 17150
TE@@ 16865
địa_@@ 16862
ẩn_chứa 16862
Wimbledon 17148
ş@@ 16861
sô 18303
Tỷ_phú 16858
Ple@@ 16858
giằng_co 16853
CC@@ 16846
xe_cơ_giới 16843
không_tưởng 16843
sti@@ 16838
ngày_ngày 16837
Tuất 17266
Trần_Quốc_@@ 16834
kháng_cự 16834
uy 25416
ack 16829
Eric_@@ 16818
THAAD 16818
vit@@ 16813
yếu_đuối 16805
Lê_Duẩn 16804
Mỹ_nhân 16802
tiễn 21019
nối_tiếp 16802
sinh_đôi 16801
Lan_Phương 16790
ack@@ 16788
ker@@ 16787
xây_dựng_cơ_bản 16782
Đại_Việt 16777
CNC 16869
HOÀNG 17167
kẻ_gian 16775
Đinh_Thị_@@ 16775
Minh_Béo 16773
Bảo_hiểm 16772
đường_huyết 16770
Hạn_chế 16766
Eli@@ 16761
i_d@@ 16758
cá_biệt 16758
Táo_quân 16758
1.100 17032
phong_kiến 16755
nhân_tình 16753
Nội_thất 16749
9/201@@ 16745
phô_diễn 16745
phản_lực 16743
Bột 16904
BVTV 17441
Sab@@ 16737
sho@@ 16736
Đặc_điểm 16736
thắt_lưng 16735
27-@@ 16730
Trái_tim 16728
Ngọn 16919
RC 16778
Nghiệp 17527
Đám 17302
Thiếu_@@ 16717
G20 16721
106 17234
nhượng_bộ 16713
ngó 17316
Di_Maria 16708
tôm_hùm 16708
Việt_Hùng 16704
ID 16982
dự_tuyển 16702
Gam@@ 16702
án_@@ 16698
học_vấn 16698
song_hành 16698
chật_chội 16697
Christian_@@ 16694
ngư 22247
Mơ 17261
húc 17271
with 16860
Maya 16734
zz@@ 16686
Show 17088
có@@ 16684
cầm_cố 16681
vàng_mã 16679
Nobel 16705
Quán_@@ 16675
không_lưu 16672
4. 16674
úa 16711
Tổng_biên_tập 16667
xiết 17225
tự_ti 16666
dai_dẳng 16665
vô_giá 16665
David_Moyes 16659
hoại_tử 16658
Pen@@ 16656
Cẩm_Xuyên 16655
Hồ_Văn_@@ 16655
Hạ@@ 16652
111 17203
ạo 16651
ĐHQG 16784
Ramos 18952
Đảm_bảo 16643
Trợ_lý 16642
ă@@ 16636
Pennsylvania 16749
Tunisia 16708
sò 17092
khẩu_phần 16627
hạch 20481
Tim@@ 16620
hoà_mình 16618
thao_túng 16613
Đâu 16890
đồng_nhất 16613
hiểm_nghèo 16611
Nak@@ 16610
giáo_trình 16608
giúp_ích 16607
Xperia 16607
mượt_mà 16606
49% 16910
câu_thơ 16605
suy_sụp 16604
THANH 16881
bom_mìn 16602
xa_xưa 16595
ĐSPL 16592
nghỉ_hè 16591
ất_@@ 16590
rộng_mở 16587
Hoá_ra 16586
pus 16578
sành 17738
lan_can 16574
aki 16570
ích_kỷ 16568
Poroshenko 16565
Bill_Gates 16562
tách_biệt 16559
ghê_gớm 16559
lãng_quên 16557
Costa_Rica 16554
chuyên_chở 16552
1.5 16715
hạ_thuỷ 16539
Brad_Pitt 16538
mồng 16872
Phương_Mai 16536
trữ_tình 16535
Bưu_chính 16534
iro 16532
ngộ_nghĩnh 16531
400@@ 16531
An_Bình 16527
Dự_đoán 16522
Nguyễn_Đăng_@@ 16520
say_sưa 16515
xe_hoa 16515
Hamas 17115
thụ_hưởng 16510
S8 16530
Thuần 16772
bò_sữa 16506
mai_táng 16506
Tài_sản 16506
Bá 19128
Brown 16707
tuần_hành 16503
Baghdad 16793
ăn_theo 16501
Chí@@ 16496
NDĐT 16500
mưa_đá 16493
Đắk_@@ 16486
thụ_động 16484
Đối_ngoại 16479
Ngân_@@ 16478
bằng_sáng_chế 16469
máy_bay_tiêm_kích 16468
sòng 17048
Lukaku 16835
elle 16467
Khang_@@ 16461
gra@@ 16458
Yên_Tử 16456
kiệt 18334
lời_giải 16455
14.000 17046
Tân_Hoa 16450
hốc 16760
dị 20956
Mỹ-@@ 16446
một_mực 16443
chú_thích 16443
mê_hoặc 16441
cốm 16458
Sta@@ 16440
tàu_biển 16440
An_Dương 16434
43@@ 16431
nhà_trẻ 16427
Thảo_Nguyên 16425
Nhân_Dân 16423
Dani@@ 16423
đa_dạng_sinh_học 16422
Quy 28009
thôi_thúc 16420
gian_dối 16419
vi_@@ 16417
mọng 16660
và@@ 16409
tụ_điểm 16403
CMND 16919
Chăm_sóc 16393
6-2 16403
Trương_Thị_@@ 16391
KCB 16901
v.v 16470
Kim_Dung 16389
Trương_Văn_@@ 16384
chất_lỏng 16384
quật 16817
SXH 17297
Day 16617
Kennedy 16569
Thống_nhất 16378
bùa 16840
Thừa 19643
tổng_tuyển_cử 16371
bóng_đèn 16368
Hình_thức 16368
ợ 16597
и@@ 16364
tiểu_phẩm 16363
bất_công 16359
Ben_@@ 16357
hậu_môn 16357
Thông_@@ 16356
tiện_dụng 16353
5-10 16527
tăm 17108
trục_vớt 16348
Tương_lai 16345
nợ_đọng 16343
buồng_lái 16343
dân_dã 16343
trùng_hợp 16342
à@@ 16339
low 16460
val@@ 16335
Xiaomi 17044
nguyên_thủ 16330
Hoàng_Thuỳ 16327
Bán_đảo 16324
cướp_biển 16323
ot 16323
Nhà_hàng 16321
thú_vui 16321
Tiến_sỹ 16321
quả_thực 16319
Viêm 16512
Has@@ 16313
mải 17039
Sam 18162
chuyển_tải 16305
trổ_tài 16304
330 16618
lãnh_hải 16300
Bad@@ 16300
Bắc_Trung_Bộ 16296
Huyền_thoại 16290
Cơ_@@ 16288
sức_mua 16286
bộ_tộc 16284
1kg 16356
Tài_năng 16281
cá_hồi 16278
15h 16976
gang 16621
Tho@@ 16275
Mi_@@ 16274
ut 16271
tỉnh_lộ 16269
Mes@@ 16268
Jae-in 16799
Hotline 16267
Quan_chức 16253
ick 16253
tel 16246
ATP 16311
dâu_tây 16243
Quy_trình 16243
Phạt 16668
Hoa_Lư 16239
Ái_@@ 16236
Hợp_@@ 16235
trúc 24206
bắt_@@ 16233
Office 16562
Peter_@@ 16230
Kết_hợp 16229
AF@@ 16228
tương_phản 16226
dấn_thân 16224
1/7 17699
Tinh 18066
hoà_quyện 16220
cất_giữ 16218
Đinh 21747
hành_hương 16214
75@@ 16214
tồi 18660
850 16762
Nhã 19083
giai_cấp 16206
thương_tiếc 16205
nhà_bán_lẻ 16205
tàn_tật 16203
vun_đắp 16200
sáp 18890
Rad@@ 16200
con_giống 16199
nền_móng 16198
ito 16198
mail 16317
Techcombank 17458
ráo_riết 16195
cây_bút 16192
cộng_sản 16191
China_@@ 16186
198@@ 16185
hưu_trí 16183
Gaza 16694
tạp_chất 16181
máy_in 16181
Ran@@ 16177
bậy 16630
huyệt 16658
đồn_thổi 16172
Tuyên_truyền 16171
ey_@@ 16169
Thanh_Hương 16166
Ori@@ 16166
Guardian 16434
1949 16211
Quế_@@ 16159
thẳng_đứng 16158
ính 16155
ania 16153
phản_bác 16153
đậm_nét 16148
Ri 16291
Chanh 16390
xướng 17095
công_kích 16141
gy@@ 16141
chấn 23436
1,9 16451
Tha@@ 16138
Anh_Dũng 16136
Dân_Trí 16135
19% 16393
ef@@ 16126
chống_trả 16125
Dem@@ 16125
Địa_@@ 16122
One_@@ 16118
Life 16668
khóc_lóc 16111
cat@@ 16110
nhắm_mắt 16110
2.5@@ 16109
ĐT@@ 16109
Cam_@@ 16109
Dinh 16932
ầu 16129
ist 16104
mời_gọi 16103
tổ_quốc 16102
thành_@@ 16101
Thằng 16339
Sou@@ 16096
Nhiên 16359
bênh_vực 16086
NSA 16079
Center 16436
Vai_trò 16075
khôn_lường 16075
GĐVN 16079
al_S@@ 16073
luân_lưu 16071
Porto 16122
trị_liệu 16066
ứa 16187
bán_buôn 16062
nhật_báo 16060
Tính_năng 16056
liên_danh 16054
127 16648
a. 16049
F-22 16053
Lễ_@@ 16047
chèn_ép 16046
Cà_phê 16045
Căng_thẳng 16043
HC 16112
mệnh_lệnh 16033
ạt 16824
114 16286
niêm_mạc 16023
nhị 16341
lop@@ 16021
ju@@ 16021
William 16462
Cạnh_tranh 16013
Luật_@@ 16012
Mir@@ 16011
đảo_ngược 16008
24/2 16004
Cairo 16119
nguyên_mẫu 15999
hãm 17039
TT-B@@ 15994
đánh_@@ 15994
ney 16735
Lê_Thanh_@@ 15991
quân_số 15988
tham_ô 15988
10/2015 15992
chững 17589
phi_vụ 15980
10/10 16063
GT@@ 15977
Chụp 16944
Giám_mục 15975
cụt 17180
Mac 16045
Mobile 16875
Nông 26000
khâm_phục 15968
dia 15970
Đèo 16355
03@@ 15962
Li 16318
Michael 17411
lây_truyền 15958
Kuwait 15971
Yên_Thành 15952
F1 18791
từ_ngữ 15948
99,@@ 15947
phá_thai 15944
sáo 16449
chớ 16965
Mỹ_Tho 15937
Tiền_@@ 15936
nh_t@@ 15936
min 16359
err@@ 15931
Mở_rộng 15931
mu 16468
tung_lưới 15925
od@@ 15922
Novosti 16035
Ấn_tượng 15917
Thuật 16149
lâm_thời 15909
Dân_@@ 15908
ỳ 16021
High@@ 15907
Khánh_Linh 15901
vơi 16407
kiêng 17106
120@@ 15898
Bách_@@ 15897
Quang_Dũng 15897
hoà_nhạc 15894
quả_thật 15890
Thanh_Sơn 15890
Đan_@@ 15889
225 16118
ms 15886
vắc-xin 17061
ồng_@@ 15882
96% 16193
oni 15877
ram 15945
Vis@@ 15876
Mão 16514
hành_@@ 15876
pos@@ 15872
SH@@ 15866
cơ_quan_hành_chính 15864
Trần_Xuân_@@ 15861
Danh_mục 15860
xoá_sổ 15860
Máy_@@ 15859
gan@@ 15857
Biên_bản 15857
Somalia 16106
tạm_biệt 15853
chi_cục 15853
Nguyễn_Khắc_@@ 15853
bộ_lạc 15852
chung_thuỷ 15848
Stephen_@@ 15848
hồ_hởi 15844
tướng_lĩnh 15842
G7 15978
nhà_sàn 15840
son@@ 15840
đau_buồn 15838
lớn_tiếng 15838
Pep 16705
ye 15833
toàn_cầu_hoá 15833
níu 16424
cây_gỗ 15832
Nuôi 16231
van@@ 15818
LTE 15951
bá@@ 15817
Tuệ 19076
đào_hoa 15809
WEF 15807
Bắc_Hà 15803
%-@@ 15802
Sương 16526
cán_cân 15796
danh_thắng 15795
XD 15841
tảo 17262
gay_cấn 15793
ema 15789
Chú_ý 15782
Mẫu_@@ 15778
Mẹo 15987
Chung_cư 15774
chiết_xuất 15773
Ji_@@ 15772
phượng 16332
phán 24530
Thế_vận_hội 15769
phai 16297
dính_líu 15766
16h 16204
Hoài_Nam 15763
Houthi 15767
nhức_nhối 15757
11/9 16149
Euro@@ 15753
cá_chép 15753
xe_tay 15753
Gruzia 15750
dõi 30228
Đại_gia 15743
Kể_cả 15739
OLED 15906
sáng_mai 15732
Thành_phần 15732
Ur@@ 15732
giúp_sức 15727
Maria_@@ 15727
nghiên_cứu_sinh 15723
Đất_nước 15723
Đế_quốc 15722
giao_lộ 15719
Star 16539
6-1 15770
Angel@@ 15713
Hồ_Thị_@@ 15710
Hạ_Vi 15708
xử_lí 15706
ầm_ĩ 15701
Ukraine_@@ 15701
trung_học_cơ_sở 15697
thư_điện_tử 15697
k-@@ 15693
24/24 16048
Trần_Hữu_@@ 15691
hoàng_hôn 15690
Tịnh_@@ 15689
rea 15688
is_@@ 15687
Ả@@ 15685
Chiêu 16324
thừa_hưởng 15683
thợ_săn 15678
cas@@ 15678
etta 15676
Ngài 16410
Asia_@@ 15670
nhạc_sỹ 15669
RON 15843
Tràng_An 15669
Mark 16391
CNVCLĐ 16392
br@@ 15666
2050 16131
ghen_tị 15663
150@@ 15662
Chrysomelidae 15661
Nhà_sản_xuất 15660
vảy 15768
2,1 16051
Ever@@ 15655
thị_trưởng 15654
thô_sơ 15653
Macron 17049
Ninh_Kiều 15648
phút_giây 15648
2.7@@ 15646
22h 16015
Bộ_phận 15642
lơ_lửng 15640
ngoại_trưởng 15639
Oli@@ 15638
mê_mẩn 15636
nối_liền 15636
linh_mục 15636
tận_tay 15636
thiên_tài 15634
Đa_phần 15634
trưng 30211
mạn_tính 15631
Me 15843
Canon 15666
khởi_tranh 15623
nghị 87632
lo_@@ 15621
Nguyệt_@@ 15620
xoang 16576
Steve_Jobs 15617
mas@@ 15615
out 15880
chung_chung 15614
nữ_thần 15613
cá_ngừ 15613
quá_cố 15612
bất_đắc_dĩ 15612
300@@ 15610
lí 18955
2/2018 15627
có_giá 15603
Thắng_@@ 15599
MH 15610
Bằng_Kiều 15597
nóng_hổi 15596
Zimbabwe 15605
Tiến_Minh 15594
mấu_chốt 15593
hà@@ 15592
toàn_thắng 15588
24% 15815
Henry 15903
côn 23121
ê_@@ 15583
Trung_Bộ 15583
hợp_kim 15581
12h 15850
tinh_hoàn 15580
Big@@ 15580
quây 16489
qua_ngày 15570
Phan_Thanh_Hùng 15570
Chuối 15732
định_danh 15565
sinh_nở 15565
phi_đội 15563
á_@@ 15563
tép 15707
tầm_vóc 15559
thẳng_thừng 15559
BST 15925
THADS 15997
Ul@@ 15556
Bahrain 15565
eria 15553
siêu_thanh 15553
Ngo@@ 15550
Tài_liệu 15547
Chạp 15617
khiêu_vũ 15545
land@@ 15543
In_@@ 15540
1939 15599
wood 15529
ôn_hoà 15526
Tô 18026
người_bị_hại 15524
bal@@ 15523
ra_hiệu 15523
Hồng_Sơn 15520
31.@@ 15519
phú 23539
đấng 15708
Thạnh_@@ 15515
tinh_gọn 15515
tờ_rơi 15513
Thanh_Oai 15513
cồng_kềnh 15509
Bóng 17836
ç@@ 15507
Armenia 15504
gỏi 16186
2/201@@ 15503
Phụ_huynh 15500
Cadn.com.vn 15498
nhấc 17499
66@@ 15491
tràng 16550
TASS 15720
117 15934
ISO 15833
Sur@@ 15483
ca_từ 15482
16.000 16002
:00 15477
kén 15792
bất_tận 15472
12/2015 15477
quản_lí 15467
thuyết 22235
Nas@@ 15460
livestream 16230
Tìm_hiểu 15449
thị_hiếu 15448
giun 15809
chủ_mưu 15447
rus 15444
xoá_đói_giảm_nghèo 15443
Trung_vệ 15440
uỷ 15437
sát_thương 15437
ai_ngờ 15433
11/2015 15479
Tru@@ 15427
kỳ_thị 15427
sơ_tuyển 15423
bán_phá_giá 15422
Vietnam_Idol 15421
Istanbul 15432
UB 15495
Kur@@ 15419
Swansea 15420
bắp_cải 15416
kiệu 15471
lấn_sân 15410
F.@@ 15410
Nam_Đàn 15409
en-@@ 15407
đánh_lừa 15407
Phượng_@@ 15406
9,5 15497
1952 15439
200m 15473
AD 15429
news 15476
West_Brom 15394
điêu_luyện 15394
po 15395
rô 15792
cia 15442
xuyên_tạc 15389
chết_đuối 15388
Tập_đoàn_quân 15385
vốn_dĩ 15381
hộp_đen 15380
đình_công 15378
kết_cục 15377
VE@@ 15377
Oceanbank 15430
28% 15571
Tử_@@ 15374
Tày 15722
ment 15373
Thái_Hà 15372
z_@@ 15369
Chevrolet_@@ 15368
Jung_@@ 15367
trung_@@ 15365
thuật_toán 15364
Clo@@ 15363
pin@@ 15363
nhà_sư 15363
trầu 15673
Khúc 15545
MH17 15357
Trung_cấp 15354
Đổ 15670
Sapa 15413
Tài_@@ 15349
ō@@ 15347
Nhơn_@@ 15344
Nguyễn_Thị_Kim_@@ 15340
Chiến_tranh_Lạnh 15340
nhất_thời 15338
Chiêu_@@ 15333
Lê_Đình_@@ 15333
Làm_@@ 15332
óng 16308
33% 15884
cờ_vua 15327
Sa_@@ 15327
sảng_khoái 15326
nick 15358
Ngày_mai 15319
Luis_Suarez 15319
trông_coi 15317
165 15872
cộng_hoà 15315
hotgirl 15629
điên_rồ 15311
30/6 16644
She@@ 15304
Tinh_thần 15304
vang_dội 15301
mất_trắng 15301
Đa 21819
Đối_thủ 15298
pen@@ 15296
Juan_@@ 15296
bóng_dáng 15295
ves@@ 15292
Hà_Tây 15290
Les@@ 15290
hung_hăng 15289
nghẹt_thở 15289
kV 15773
Hà_Thành 15289
lơ_là 15288
đặt_cược 15282
Chào 15550
Nà_@@ 15277
futsal 15313
Ra_mắt 15275
thương_phẩm 15274
nhà_kính 15274
acid 15733
ngao 15650
thông_dụng 15271
Nông_@@ 15270
Thiến 15406
tiến_sỹ 15266
Marseille 15321
cảng_hàng_không 15263
thật_ra 15261
Ngọc_Lan 15260
Đỉnh 16109
Tân_Thành 15259
Nhà_thơ 15254
hùng_hậu 15249
sin 17205
ena_@@ 15247
m_th@@ 15238
-1 15243
ôn_tập 15236
mò 16949
mặt_trăng 15232
Chăn_nuôi 15230
rau_sạch 15229
Tóc 16328
tràm 15334
duyên_hải 15224
Tào_@@ 15224
Vệ_sinh 15222
GPLX 16358
1.700 15777
Cur@@ 15222
3,7 15606
Áo_dài 15217
han@@ 15215
LE@@ 15214
lia 15218
NQ-CP 15211
tốt_bụng 15211
net@@ 15210
Ngũ_Hành_Sơn 15209
mươi 15989
CB 15205
chật_hẹp 15201
thán_phục 15201
Thomas 15744
Ông_@@ 15201
u_th@@ 15200
kính_trọng 15198
Thuỷ_lợi 15197
Dạ 15830
nhà_khảo_cổ 15195
Play 15557
Thử 17248
Hồng_Hà 15193
6h 16401
í_@@ 15189
Triều_@@ 15189
Bách_Khoa 15188
Hoa_Sen 15185
hỏi_han 15183
Kin@@ 15182
tá_hoả 15182
Wh@@ 15182
chi_@@ 15181
Nguyễn_Trung_@@ 15181
tạm_bợ 15181
chế_phẩm 15179
Nghi_Lộc 15179
Lòng 15627
kiều 16662
Thích 15989
quy_đổi 15167
Minh_Tuấn 15165
mac@@ 15165
Cường_@@ 15164
nấc 15359
Res@@ 15161
Las@@ 15160
máy_giặt 15159
а@@ 15155
Dun@@ 15153
làm_phiền 15150
Thomas@@ 15149
Khối_lượng 15148
Midu 15345
Cát_Linh 15146
AC@@ 15145
Diego_Costa 15143
44@@ 15142
Nhiệt_điện 15142
nói_xấu 15138
wifi 15284
uri 15133
Chrome 15493
KCNA 15274
trước_bạ 15130
Nha 25315
Đổi 16287
Tình_huống 15126
8/11 15209
Index 15471
xuất_xưởng 15117
sửng_sốt 15117
Rou@@ 15116
HL@@ 15112
lương_y 15112
ter_@@ 15111
Dẫn 15710
ì_@@ 15111
dát 15607
sy@@ 15106
Bạn_bè 15105
tái_lập 15101
Xu@@ 15100
than_phiền 15100
Anfield 15356
iêng 15098
liều_lượng 15098
kỳ_thủ 15096
rậm 15274
cư 47322
Sỹ 16544
BA 15151
nghẹn 15627
náo_loạn 15079
nghỉ_mát 15078
treo_giò 15064
ủng 31735
Theo_@@ 15062
Mạc_Hồng_Quân 15062
Nguyễn_Huy_@@ 15053
dã 23857
sụp 17469
Adam_@@ 15052
Có_khi 15051
lữ_đoàn 15050
thất_lạc 15045
TB@@ 15044
ngẫu_hứng 15044
xuất_cảnh 15043
cười_@@ 15041
trĩ 16059
Kỷ_lục 15037
lụt 21765
Đương_nhiên 15036
Quang_Vinh 15036
Hoàng_Hải 15034
ấ@@ 15034
xung_kích 15034
34,@@ 15030
PE@@ 15028
nội_tâm 15026
Daniel_@@ 15023
logic 15214
Cẩm 19312
phô_mai 15013
luật_lệ 15012
Châu_Phi 15012
ding 15064
lỗi_lầm 15006
/VOV.VN. 15005
U16 15015
nhà_sáng_lập 15005
Rửa 15173
đáng_giá 15003
É@@ 15000
cục_diện 14997
thế_kỉ 14995
Mark_Zuckerberg 14995
les@@ 14993
Thành_lập 14989
Biên_@@ 14984
tội_nghiệp 14984
nhân_phẩm 14980
Thị_xã 14980
cấp_phát 14979
bỉm 15357
chính_@@ 14978
Sung 15402
hoá_dầu 14977
Hezbollah 15002
giao_bóng 14974
flav@@ 14974
cao_cả 14971
thoả_hiệp 14971
t. 14970
chăm_chú 14968
Volkswagen 15072
Georgia 15211
dấu_hỏi 14966
Estonia 15045
tay_trong 14958
toạ_độ 14958
11h 15309
Tam_Đảo 14953
Kaka 14953
ắn 14987
á_hậu 14952
CK 15453
nhô 17606
th_@@ 14949
đen_tối 14946
Tâm_lý 14945
Dal@@ 14944
lim 15016
Công_Lý 14939
thiền 15425
lu 15978
14h 15246
Dinh_dưỡng 14925
day 15219
nhục 15346
nge 14922
31-@@ 14919
Kim_Mã 14917
nickname 15056
4-6 14983
Ok@@ 14912
о@@ 14911
ăn_hàng 14911
đào_thải 14906
Cát_Lái 14906
Tinh_@@ 14904
Luận 15144
tường_trình 14897
Xây 24206
oán 15110
café 14990
ngoại_thất 14886
phi_chính_phủ 14886
dở_dang 14884
thự 19083
ã 14935
Han_@@ 14879
khóm 15187
Gói_thầu 14875
Kit@@ 14874
qua_@@ 14873
Đô_Lương 14873
Khu@@ 14872
hoàn_vũ 14870
CM@@ 14869
Tay_vợt 14865
Pav@@ 14863
hoạt_hình 14860
độc_nhất_vô_nhị 14858
Hầu_như 14856
ra_mặt 14855
Bắc_Phi 14854
Ôi 15236
VT 14849
122 14929
IA 14843
poly@@ 14839
27% 14989
Chim 15026
Mah@@ 14835
của_cải 14831
tiên_tri 14831
iều 14839
gặt 15903
khẩu_vị 14829
Kim_Anh 14827
SD 14837
ov@@ 14821
dế 15152
Tổng_Cục 14817
Charles 15435
ộc 14818
Dự_trữ 14812
phân_hoá 14809
Asian_Cup 14806
nẻo 14999
bệnh_tình 14803
Ligue 14851
nguyên_lý 14799
công_ích 14797
ori@@ 14796
viện_phí 14796
tiếng_động 14794
nhỏ_nhắn 14793
bất_tiện 14789
sắc_thái 14786
bất_@@ 14785
thiếu_gia 14783
h15 14783
Hành_khách 14783
body 15773
Ái 16585
Nguyễn_Chí_Thanh 14780
Danh_hiệu 14778
45.000 14997
Bali 16134
Bầu_cử 14776
Giao_dịch 14774
mobile 14850
Sinh_học 14772
124 14859
say_đắm 14771
đầy_ắp 14771
1951 14825
bình_thản 14770
hối_tiếc 14768
Nước_@@ 14767
Phú_Xuyên 14760
981 14828
Tiến_Đạt 14755
han 15092
Harry 15768
Cou@@ 14752
cụ_già 14752
Pos@@ 14752
Blo@@ 14749
Chin@@ 14748
hô_hoán 14747
thanh_lọc 14744
dáng_vẻ 14742
TTVN 14741
xít 15041
phình 14850
ngán 15474
cốp 15420
tinh_khiết 14733
yu@@ 14730
miễn_nhiệm 14730
sil@@ 14729
Chuẩn 16297
Lê_Hồng_Phong 14727
đao 15781
Thịnh_@@ 14727
ano_@@ 14726
uni@@ 14726
À 14848
29-@@ 14725
đổi_đời 14724
eh@@ 14724
Sco@@ 14720
phân_khu 14717
bùn_đất 14716
Wilson 14803
Sm@@ 14710
xa_lộ 14710
S6 14720
Duy_Mạnh 14705
Nghi_Xuân 14702
Lâu_nay 14702
triết_học 14701
kiểu_mẫu 14700
port 14700
Dân_vận 14699
oi 14902
duy_tu 14698
nghiệp_dư 14697
Chủ_nhân 14697
nhỉnh 14898
ủi 16105
nano 14769
CAP 14845
ớn 15036
kèn 14880
ịch 14691
địa_chính 14682
Điều_lệ 14682
LO@@ 14682
thật_thà 14679
Lục 15746
phạm_pháp 14672
bil@@ 14670
Nỗ_lực 14667
Đầm 15323
121 15186
cô@@ 14663
Bổ_sung 14661
nhọc_nhằn 14658
hùng 19734
cám_dỗ 14657
Taxi 14875
PHƯƠNG 14699
Nga-@@ 14654
nhà_kho 14654
wer@@ 14654
ân_hận 14651
Kết_nối 14651
ịt 14651
choáng_ngợp 14651
141 14950
tin_@@ 14648
toan_tính 14648
ặc 14647
23-@@ 14644
Nguyễn_Mạnh_@@ 14640
võng 15339
3,8 14755
Bao 15858
lơ 17100
RS 14838
nhào 15941
Pin@@ 14626
ake 14623
Điền_@@ 14621
Bình_thường 14619
băng_rôn 14618
hiểm_hoạ 14617
Trần_Tuấn_Anh 14616
Sáng_kiến 14615
trang_lứa 14614
Đồng_Xuân 14614
gờm 15268
Đỗ_Mỹ_Linh 14614
gồng 15124
đơn_độc 14612
H-@@ 14611
bốt 14975
chữ_viết 14610
Độc_giả 14610
Tổ_@@ 14607
TT-BTC 14605
sto@@ 14602
CNLĐ 15080
21-@@ 14600
mar 14598
phản_diện 14597
Phúc_Thọ 14596
Phát_huy 14591
VA@@ 14590
Tay 15359
dễ_dãi 14582
18h 15727
đài_phát_thanh 14581
Haiti 14581
xã_hội_đen 14580
thiên_@@ 14580
FB 14849
Chi_Lăng 14575
chuẩn_hoá 14575
cường 43582
log@@ 14569
Kir@@ 14568
Áp_lực 14567
Nexus 14605
Nhan_sắc 14566
ab 14572
che_chở 14565
giám 49306
Sư 18245
lặn_lội 14563
ngớt 14723
ali 14558
Huệ_@@ 14553
u_l@@ 14552
Tesla 16388
Sw@@ 14548
trọn_gói 14548
Kim_Sơn 14548
hàng_quán 14547
lâm_tặc 14540
Lý_Thường_Kiệt 14539
Anh_Thư 14539
thị_giác 14538
trận_địa 14536
Kỳ@@ 14536
suy_đoán 14533
casting 14854
nguyên_vật_liệu 14531
còng 17872
inh_@@ 14526
ngon_lành 14526
lâm_sản 14524
mê_tín 14524
Santos 14635
quả_quyết 14522
dri@@ 14521
Chế_biến 14521
nguyên_đơn 14520
nghèo_nàn 14519
sảy 15262
0,0@@ 14514
Ren@@ 14505
diễn_tả 14505
NHTM 14886
vali 14721
Nội_@@ 14499
yn@@ 14499
cơm_@@ 14498
Thể_dục 14497
tươi_sống 14496
chi_phí_sản_xuất 14495
hoà_đồng 14495
HTV 14503
vô_nghĩa 14489
Thổ_@@ 14488
Hiên 14867
Thách_thức 14486
s_S@@ 14483
HT 14724
hâm_nóng 14481
nước_lọc 14479
sặc_sỡ 14479
Etihad 14546
vẻ_vang 14478
Terry 14581
thầm_lặng 14475
Bà_con 14475
hy_hữu 14474
dơi 15452
VNE 14486
bạc_hà 14469
Bảo_Lộc 14467
cứu_vãn 14467
NĐ 14484
điều_lệ 14465
tal@@ 14465
đồi_bại 14462
ken 14802
chiến_tuyến 14461
dù_sao 14461
chiều_chuộng 14458
Dọc 14855
quang_học 14454
Nhật_Minh 14453
100g 14596
chen_lấn 14449
Lừa_đảo 14449
Bphone 14941
sao_Hoả 14446
Trộn 14665
tàn_nhẫn 14445
Tương_Dương 14444
vil@@ 14442
súng_ngắn 14442
77@@ 14441
26% 14905
Học_@@ 14436
SSI 15209
chấp 41140
hàng_ngũ 14429
Kho_bạc 14425
Paul_Pogba 14425
Quân_uỷ_Trung_ương 14424
Mol@@ 14423
6S 14592
enn@@ 14422
Var@@ 14418
CL 14431
bánh_tráng 14415
noi 15301
rocket 15027
cin@@ 14407
rông 14633
ắ@@ 14404
Arctiinae 14404
Tháng_@@ 14402
hiển_nhiên 14400
dìm 14626
Cửa_hàng 14394
tán_tỉnh 14390
bốc_hơi 14389
à_@@ 14389
950 14560
Tin_học 14387
Phù_@@ 14386
CBCS 14644
3,3 14808
rà 24339
145 14673
tu_sửa 14379
ơ_@@ 14379
bóng_@@ 14377
Kỷ 15479
tổng_kim_ngạch 14375
Phu_nhân 14374
tự_tạo 14374
Song_@@ 14371
36% 14648
hứng_khởi 14370
Dam@@ 14370
Rượu 14612
lav@@ 14368
con_riêng 14366
50-@@ 14364
_thể 14363
tư_lệnh 14359
Căn_hộ 14358
CR@@ 14358
ớ 17457
đói_nghèo 14346
ẩm_ướt 14344
mang_tiếng 14340
Tình_@@ 14339
GI@@ 14339
Sáng_tạo 14334
Thu_Hiền 14331
Kim_Chi 14328
quan_họ 14327
0,5% 14915
bộ_não 14325
ng_l@@ 14325
rag@@ 14324
Edge 14337
rapper 15690
dy@@ 14320
kha@@ 14315
phế_thải 14315
đón_chào 14314
TT. 14314
ạ@@ 14314
Jose_@@ 14312
Vỏ 14525
yếu_ớt 14311
Vĩ_Bắc 14309
hạch_toán 14304
28-@@ 14303
hằn 14819
eta 14302
Đồ_Sơn 14301
17.000 14698
cử_động 14300
Cốc 14690
Anderson 14432
tiền_thân 14295
cen@@ 14295
vệ_sĩ 14291
Mày 14399
Kienthuc.net.vn 14287
ân_cần 14285
náo_nhiệt 14280
bồng 15287
chổi 14742
Long_Xuyên 14279
197@@ 14278
thiểu_số 14277
hiếu_kỳ 14277
đồng_ruộng 14276
Maradona 14299
Jun@@ 14274
Lê_Quốc_@@ 14274
len@@ 14273
hợp_thức_hoá 14272
Trung_Kiên 14271
hơi_nước 14269
ori 14268
tự_trọng 14268
Thuý_Nga 14267
ờ_@@ 14267
Công_bố 14266
trôi_nổi 14265
Meg@@ 14264
tít 14452
City_@@ 14263
hân_hoan 14262
Cư_@@ 14259
phone 14272
Cờ 14952
dinh 20149
chiêng 14605
bao_che 14255
480 14398
N-@@ 14254
Y_Dược 14252
95@@ 14252
Phóng 15552
ip@@ 14246
Ghana 14412
Năm_học 14244
dinh_thự 14242
~ 14295
cu 17372
Jin 16068
Uni@@ 14240
du_kích 14239
al-Qaeda 14241
Dra@@ 14236
tuyên_thệ 14236
vụt 14730
thành_hình 14232
Cứu 14844
quây_quần 14228
vía 15046
biển_hiệu 14225
đãi_ngộ 14225
Cháy 14621
KS@@ 14222
Wang 15073
Van 14776
dây_thần_kinh 14220
Thiết 17997
hàn_gắn 14216
TTCP 14266
Nguyễn_Tấn_@@ 14214
Justin_Bieber 14214
hồng_ngoại 14212
ụ@@ 14210
Saigon_@@ 14210
giảng_đường 14208
casino 14400
hết_lời 14208
Chan@@ 14207
Nhơn 17526
our@@ 14203
ther 14200
Chánh_@@ 14199
gg@@ 14195
Alexander_@@ 14193
BLĐ 14272
ạc 14200
khốn_khổ 14189
Mạc 16078
cung_cầu 14187
quân_chính 14186
Jack_Ma 14182
chuyên_biệt 14179
bon@@ 14173
cấp_tính 14173
Ngà 14823
Rob@@ 14169
phô_trương 14168
Hàm 16423
đầy_đặn 14164
ici@@ 14164
Nhơn_Trạch 14162
Hoàn_@@ 14161
Hà_Văn_Thắm 14161
thấu_đáo 14154
giời 14631
quí 14611
đạn_dược 14146
mại 47728
1936 14156
ble 14141
Hoà_Phát 14141
pháo_đài 14137
chin@@ 14135
diễn_giả 14133
đường_sá 14133
Vũ_Cát_Tường 14132
miến 14352
lược_dịch 14131
toàn_phần 14130
Hoà@@ 14127
ics 14125
xy 14340
huyết_mạch 14122
Tượng 15051
quá_đà 14116
Tao 14264
trao_trả 14111
.com.vn 14111
Triệu_Vy 14108
Đặng_Thu_Thảo 14104
chèn 14744
mấy_ai 14103
Galaxy_S 14102
Nguyễn_Mạnh_Hùng 14102
uyến 14103
TD 14312
xe@@ 14100
5h 14669
tuồng 14390
BizLIVE 14174
Tức_là 14094
Y. 14092
Hoà_Vang 14088
kình_địch 14087
Bí_mật 14087
Thanh_Khê 14085
Photo 14132
lad@@ 14082
cự 17347
Cra@@ 14081
doping 14078
din 14134
_Mc@@ 14072
trông_đợi 14070
Bà_@@ 14069
đối_ứng 14068
Al_@@ 14067
3000 14395
Lỗi 14309
Sand@@ 14062
sâu_xa 14053
5S 14089
Nguyễn_Văn_Linh 14049
nổi_giận 14048
sẫm 14159
Tổ_trưởng 14047
Nghi_Sơn 14045
hột 14224
Rùa 14117
tự_truyện 14043
thời_vụ 14041
Joseph@@ 14041
Thuỳ_Trang 14038
del@@ 14036
cồng_chiêng 14035
trôi_dạt 14034
Quốc_Khánh 14034
SCMP 14508
Đau 14486
Bus@@ 14028
biển_Đông 14028
bộ_vi_xử_lý 14027
Xavi 14530
Bí 44334
Chuyên_@@ 14019
luận_án 14017
ản 16224
làm_tròn 14015
PA@@ 14014
cá_@@ 14013
Phủ_@@ 14011
And@@ 14011
Sản 20134
xù 14509
Quảng_Tây 14005
Huyền_Trang 14004
Vậy_thì 14003
Hon@@ 13999
Trans@@ 13994
Gold@@ 13993
VNM 14413
Gala 14103
mặn_nồng 13990
không_trung 13987
tt 13979
ẢNH 14035
gánh_vác 13975
tiềm_tàng 13974
băng_đảng 13973
1/2016 14030
389 14148
iên_@@ 13967
khuynh_hướng 13966
Trương_Ngọc_Ánh 13965
4/5 14017
Đăng_ký 13962
Java 14127
Khoá 13961
cánh_quạt 13961
IN@@ 13961
đại_tràng 13960
iện 13967
uỷ_thác 13957
ans@@ 13957
Đàn_bà 13957
sầm_uất 13956
lệ_thuộc 13948
nồng_nàn 13947
kiêm_nhiệm 13946
ins 13945
Ozil 13974
Mun@@ 13943
lồng_tiếng 13942
Jr 14068
Kia 15725
mon 14401
el_M@@ 13940
ny@@ 13939
85@@ 13934
Nguyễn_Tất_Thành 13933
Lý_Thái_Tổ 13933
nồng_nặc 13932
lựa 34873
hạ_du 13931
ku 13936
Bài_học 13929
Sinh_@@ 13928
Media 14260
Diễm_My 13927
nhấp 14409
Mou@@ 13925
tế_nhị 13924
Sỹ_@@ 13924
ngạch 17051
teo 14273
Thanh_Vân 13919
ates 13915
Đấu_thầu 13912
Minh_Phương 13911
Honduras 13904
cầu_xin 13902
khai_tử 13902
thảm_kịch 13902
Điện_tử 13901
Bạch 17372
chủ_@@ 13897
Thuỵ_@@ 13892
giác_mạc 13892
Trồng 14740
cha_đẻ 13887
Khai_mạc 13886
Thời_trang 13883
Tân_Cương 13881
eo@@ 13881
col@@ 13872
Hà_Thu 13870
Isaac 14018
3m 13950
Bác_sỹ 13867
trợ_giá 13866
mil@@ 13865
test 14249
lá_chắn 13863
Ý_kiến 13861
Nhi_Trung 13859
Bet@@ 13859
Fan 14603
đa_chiều 13855
nghịch_lý 13850
giám_thị 13848
rap 14753
phong_tặng 13848
Trung_uý 13845
Linh_Chi 13842
Washington_Post 13842
xưa_nay 13842
gõ_cửa 13838
ke_@@ 13837
2016-2021 16245
50m 13946
TG 13938
hiểm_trở 13826
đặc_xá 13825
cầm_đồ 13819
118 14139
micro@@ 13815
Michigan 14171
tha_hồ 13812
đầu_tàu 13812
ook 13807
trốn_tránh 13806
nhích 13970
Trung_Hoà 13797
Wor@@ 13796
26-@@ 13795
Vọng 14655
XNK 14094
t.@@ 13791
Đông_Triều 13790
Cab@@ 13790
xa_cách 13790
tiểu_khu 13787
đi_chăng_nữa 13784
West@@ 13784
2.5 13914
tuỷ 13782
ngoại_khoá 13782
tổ_trưởng 13777
sung_túc 13775
tidae 13773
Robot 13930
dẫn_động 13772
Mai_Anh 13771
ăn_nói 13768
hút_hồn 13768
Hộ 14527
va_@@ 13765
32% 13975
Bolivia 13945
BH@@ 13761
Phạm_Xuân_@@ 13758
David_Beckham 13755
dẻo_dai 13753
Shutterstock 14090
NO@@ 13750
đắc_địa 13749
B1 14017
Wat@@ 13747
tuỳ_thân 13747
đậu_phụ 13746
số@@ 13745
bánh_trung_thu 13745
gạo_cội 13741
KN 13764
12/2014 13758
Từ_@@ 13735
s_L@@ 13735
Đội_ngũ 13732
Dav@@ 13731
Kim_Cương 13727
HQ 13753
khẽ 13908
Khá 14066
sóc 29544
ao_ước 13723
Schalke 13727
lương_tâm 13717
bạo_động 13717
Bà_Rịa_Vũng_Tàu 13716
chiết_khấu 13716
ón 13719
Den@@ 13713
Cạnh 14503
play 13764
xen_lẫn 13707
_nhân 13706
ium 13703
tự_@@ 13703
Kinh_Đông 13698
Perez 13959
rid@@ 13697
Ngũ_@@ 13696
Maria 14144
Tăng_Thanh_Hà 13694
02/@@ 13694
thân_yêu 13693
Xúc_tiến 13692
phá@@ 13691
Stu@@ 13690
tiền_@@ 13690
cận_nhiệt_đới 13690
Book 14010
NBC 13838
mỗi_một 13687
Nghĩa_trang 13686
nghẽn 14822
địa_giới 13683
Med@@ 13680
Giảng_Võ 13680
T.H 13742
xen_kẽ 13677
App@@ 13676
Tông_@@ 13675
Kim_Lý 13675
cung_bậc 13669
Bul@@ 13668
bri@@ 13664
bất_mãn 13664
Khai 16013
Tiếc 13905
hen 13902
việt 18029
cộng_tác_viên 13660
TVB 14465
dân_@@ 13658
SG@@ 13656
kém_cạnh 13654
22-@@ 13651
Đinh_Tiên_Hoàng 13648
phanh_phui 13646
Vân_Nam 13645
Bắc_Đại_Tây_Dương 13643
đối_kháng 13643
bịa_đặt 13643
thường_dân 13642
Hệ 18392
Nam_Á 13639
Tương_@@ 13638
nghị_viện 13638
Suzuki 14542
Tây_Nam_Bộ 13637
Tân_An 13634
ance 13633
ôxy 13756
ines 13632
132 14471
ning 13849
long@@ 13628
Sun_@@ 13628
thu_chi 13625
til@@ 13623
Pháp_chế 13623
tái_hợp 13617
dâm_ô 13615
Sum@@ 13615
niệm 26976
Như_thế 13612
Tiểu_sử 13611
bãi_tắm 13610
Pic@@ 13607
hiên 13923
sốt_rét 13604
thanh_bình 13604
Những_tưởng 13601
_v@@ 13600
ago 13593
sốt_ruột 13593
khiếm_thị 13593
Hà_Văn_@@ 13592
Kịch_bản 13591
thanh_thản 13588
Chùm 13637
phù_hiệu 13585
hào_hùng 13583
Mái 14280
lên_men 13578
địa_chính_trị 13578
thể_xác 13576
thực_thể 13575
mỏng_manh 13575
Falcao 13575
2.6@@ 13573
tồn 26604
alia 13566
in_ấn 13565
SG 13981
thước_đo 13562
tín 38744
REUTERS 14100
Rus@@ 13561
Alexis_Sanchez 13559
tỳ 14104
Crystal_Palace 13559
Xe_tăng 13557
Vietinbank 13862
gia_@@ 13555
Bát_@@ 13555
nh_@@ 13554
mag@@ 13554
Dân_sự 13553
đền_đáp 13553
truy_sát 13551
Lê_Đức_@@ 13551
Linh_Đàm 13548
ary_@@ 13548
Bao_nhiêu 13546
Ga 14279
10m 13784
thuỷ_triều 13540
ội 13545
Đan_Trường 13539
B-52 15523
Đồ@@ 13537
yểm_trợ 13537
Rodriguez 13886
Trương_Minh_Tuấn 13531
thư_pháp 13531
bản_làng 13531
ax@@ 13530
Cơ_cấu 13528
Than 16390
ley_@@ 13527
trẻ_hoá 13523
điều_luật 13523
Hye_Kyo 13521
(@@ 13519
xạ_thủ 13518
méo 14005
thuần_tuý 13515
xúc_xích 13515
Yang 15788
Illinois 13651
Vâng 13729
nhạy_bén 13513
Địa_ốc 13512
ngậy 13748
aka 13510
làm_thuốc 13509
use 13514
ep 13514
Minh_Khai 13505
Da_@@ 13504
4,7 13779
Coo@@ 13498
vi_sinh 13498
nhà_tắm 13497
học_@@ 13496
suông 13834
Costa 13703
Đại_dương 13490
vạt 14085
Nag@@ 13489
thủ_trưởng 13488
Green_@@ 13488
con_bạc 13484
Phú_Mỹ_Hưng 13481
níu_kéo 13481
fa 13481
Thuỷ_Nguyên 13479
Ale@@ 13478
Catalonia 13962
bấp_bênh 13475
Ali 14086
134 14493
Trước_tiên 13468
tiến_hoá 13464
Iniesta 13466
Zo@@ 13463
đồ_cổ 13462
Black@@ 13461
PS 13464
char@@ 13458
Tứ_Xuyên 13456
thực_quản 13455
tha_thiết 13454
hải_@@ 13453
NGỌC 13805
Yingluck 13447
Địa 17311
10-15 13629
Chi_bộ 13442
phạt_góc 13441
hạ@@ 13440
bao_quát 13438
Đề_cập 13438
Tào_Tháo 13438
tự_hành 13437
Mai_Linh 13436
Quyến 13685
phim_truyện 13435
Trò_chơi 13433
Nguyên_tắc 13433
BV@@ 13433
Mand@@ 13431
HUY 13510
fans 13678
tĩnh 18901
Garden 14237
Tel@@ 13426
nguyền 13672
Bảo_Ngọc 13422
săn_bắt 13420
Chi_tiết 13420
Thanh_Tú 13419
tử_nạn 13416
Thế_mà 13414
tái_ngộ 13411
X.@@ 13410
day_dứt 13410
nghĩ_lại 13409
Thông_điệp 13408
tí@@ 13408
64@@ 13406
gây_mê 13405
Dĩ_An 13404
mal@@ 13404
lí@@ 13403
Alan_@@ 13402
Go 14678
đàn_hồi 13399
Kiếm 15798
Lãi_suất 13398
Mở_đầu 13396
Hill 13600
Mich@@ 13395
tỏ_vẻ 13394
chế_xuất 13391
mè 14895
ký_tự 13389
hình_thù 13387
38,@@ 13384
Ca_@@ 13383
ami@@ 13382
pháp_nhân 13382
găng_tay 13381
tennis 13734
rèm 13614
ới 13413
Donbass 13378
Ả_Rập_Saudi 13377
chất_@@ 13377
đồng_lòng 13376
cọp 13385
ác_@@ 13373
Đan 16749
Thật_sự 13373
Lavrov 13379
u_t@@ 13371
Zu@@ 13371
Thi_thể 13369
thành_trì 13368
Asi@@ 13368
Phụ_sản 13367
Nửa 13965
gene 13833
Palmyra 13362
Max@@ 13354
thu_dọn 13354
sáng_sủa 13354
thập_phương 13352
bài_vở 13345
1900 13451
mưu 20815
Nhạc_@@ 13344
tổng_quát 13344
đồi_núi 13341
Hoàng_Long 13340
cc@@ 13337
8. 13337
lo_toan 13337
pol@@ 13332
Quân_y 13329
cổ_tay 13329
chướng_ngại_vật 13328
sơ_cấp 13327
đắc 15228
Tô_Lâm 13322
Boston 13386
bao_dung 13319
Thương_@@ 13319
PO@@ 13316
1938 13330
dân_vận 13314
eth@@ 13306
aris 13306
_Minh 13305
tri 24072
Black_@@ 13304
Cẩm_Ly 13304
HS@@ 13298
168 13406
hoa_cúc 13295
phong_thái 13292
hàm_răng 13292
bồi_đắp 13287
phiền_hà 13285
Phong_Điền 13285
nhà_tổ_chức 13284
op 13287
đu 15201
Nguyễn_Viết_@@ 13280
LC 13309
NHM 13364
tuỵ 13277
Nhà_thầu 13276
bàng_quang 13273
radio 13358
Choi 13953
xe_bồn 13272
đam 19412
Lim 13460
2-4 13609
eus 13270
hữu_quan 13268
Sak@@ 13268
học_thuật 13267
10/201@@ 13263
Raj@@ 13263
bất_chợt 13262
Thủ_trưởng 13261
cola 13260
xắt 13562
SBD 13257
hồi_ký 13257
cố_thủ 13256
Chí_Trung 13256
trúng_cử 13254
xác_chết 13253
CO2 13484
tích_trữ 13251
54@@ 13251
HA 13690
bó_tay 13246
bình_thường_hoá 13242
Huấn 19562
Ngoại 23984
Phil@@ 13240
Pháp_Vân 13239
áo_phông 13238
Vũ_trụ 13237
quá_khổ 13234
Đan_Phượng 13233
io@@ 13233
Tevez 13249
giầy 13384
sinh_tồn 13228
sum 13416
3.0@@ 13228
57@@ 13226
thần_thánh 13224
di_chứng 13221
may_mặc 13221
Sat@@ 13220
hà 14631
Đức_Thọ 13219
Tứ_@@ 13218
Smart_@@ 13217
lar@@ 13216
tiểu_thư 13216
cựu_binh 13215
sanh 14186
rình_rập 13213
chan 13489
bất_cẩn 13212
kiểm_duyệt 13212
Hải_Anh 13210
Sở_Giao_dịch 13209
cưỡng_bức 13209
ãi 13259
xỉ 15647
Yam@@ 13208
vườn_quốc_gia 13208
vô_tâm 13205
$@@ 13203
kín_tiếng 13202
ặt 13202
Thi_hành 13201
thăng_bằng 13201
bạo_loạn 13200
Nghiêm_@@ 13200
Bia 13749
Nhà@@ 13199
Tra@@ 13197
ẻ 13200
Khan 13519
Sk@@ 13193
ía 13193
xương_sống 13192
Trận_@@ 13189
boo@@ 13188
I.@@ 13188
Tham_mưu_trưởng 13187
xích_lô 13187
Tóm_lại 13187
Chân_@@ 13187
2h 13338
Xuất_nhập_khẩu 13185
Tang_vật 13185
góc_cạnh 13183
bộ@@ 13183
Martial 13578
HN@@ 13180
15/9 13177
Thực_chất 13177
Dư 16104
vỡ_nợ 13175
kỉ_lục 13173
thắm 13539
viếng_thăm 13170
mp@@ 13170
Nổi_bật 13169
quê_quán 13168
hươu 13344
tình_đầu 13161
nho@@ 13157
Phú_Quý 13157
138 13270
Chánh_Thanh_tra 13154
f_@@ 13153
nặn 13680
Giải_Phóng 13149
ks@@ 13147
cầu_đường 13147
bồ_câu 13145
động_@@ 13143
bạo 18616
Nho 13921
Sochi 13147
tận_tâm 13137
sâu_đậm 13137
tận_tuỵ 13135
cá_cược 13135
ật 13134
ei@@ 13133
11/201@@ 13132
hối_hả 13131
thìa_cà_phê 13129
vóc 17243
đóng_dấu 13126
văn_bằng 13121
rốt_cuộc 13121
bre@@ 13119
ace@@ 13119
250@@ 13119
Chủ_động 13117
ví_von 13117
Chữ 13715
2017-2018 13273
tanh 13616
lân 15657
bành_trướng 13108
ký_tên 13105
ênh 13104
mỉa_mai 13104
lạng 13379
els 13102
Phẫu_thuật 13102
6/4 13100
mải_mê 13100
iss@@ 13099
làm_ngơ 13099
2.4@@ 13099
quân_dụng 13097
ud 13096
bằng_lòng 13095
Blu@@ 13095
ạp 13094
bản_tính 13094
12/201@@ 13091
it_@@ 13090
129 13583
tuyến_giáp 13089
ngân 63272
súc 15079
UV 13972
chocolate 13145
Theresa_May 13082
GCN 13196
BHL 13235
micro 13285
hàng_@@ 13076
tự_thân 13073
ABS 13239
Vạn 14942
Joe_@@ 13070
thống_đốc 13069
tay_phải 13069
iến 13080
đấu_nối 13067
chải 13911
KS 13066
đại_đa_số 13065
tiếp_tế 13060
chenko 13060
148 13290
600@@ 13059
chăn_gối 13058
aco 13057
13-@@ 13052
atum 13049
Bắc_Sơn 13048
Đà_@@ 13047
Phi_Nhung 13045
Lê_Hữu_@@ 13045
ngòi 13531
Khối_@@ 13042
ô-tô 13283
thủ_quân 13032
212 13074
Nhà_giáo 13027
Nghiêm 14792
phora 13022
38% 13293
công_phá 13013
chiết 14716
Hiệu_quả 13011
gia_cảnh 13005
đầu_sách 13005
NĐ-CP 13020
khử_trùng 13003
119 13055
Asus 13114
trầm_lắng 13002
Sergei_Lavrov 13001
cột_dọc 12999
Võ_Văn_Kiệt 12996
Lăng_@@ 12995
42% 13443
Toà_soạn 12992
phá_cách 12990
23/9 13041
Phương_Linh 12987
an_thần 12986
4,3 13724
RO 13111
You_@@ 12984
Khoáng_sản 12983
Nhà_chức_trách 12981
id_@@ 12979
vô_cảm 12979
xi-lanh 13303
Kế_toán 12975
Tony_@@ 12975
Bộ_chỉ_huy 12974
CAH 13134
Mata 13275
Nav@@ 12969
lon@@ 12968
yl 12968
Trùng_Khánh 12967
sinh_sôi 12964
ừ@@ 12964
Vingroup 14123
tái_sinh 12962
dí_dỏm 12960
Mike_@@ 12960
dioxin 13033
t_t@@ 12959
ể 12983
trót 13133
giàu_sang 12955
enz@@ 12955
France 12978
31% 13052
amo@@ 12953
TRẦN 13295
mat@@ 12950
ID@@ 12949
Cao_Lãnh 12949
sắc_tộc 12947
Coun@@ 12946
gán 13144
Ama@@ 12943
Lor@@ 12938
ith 12938
khấu_trừ 12937
Pur@@ 12937
tica 12935
Fri@@ 12934
The_Remix 12934
Uông_Bí 12934
chín_chắn 12934
ạn 12931
Dù_sao 12925
Kia_@@ 12923
Thời_kỳ 12918
buôn_người 12918
Osaka 13125
gin@@ 12917
Vận 16177
Hat@@ 12915
Jar@@ 12914
vòng_vây 12913
ED 12912
152 13382
rum 12938
Deir_Ezzor 12908
tâm_thế 12907
thần_linh 12906
tác_phong 12905
Flo@@ 12902
duyệt_binh 12898
sang_tên 12898
9/2015 12910
Huỳnh_Thị_@@ 12896
Lâm_nghiệp 12895
Trái_ngược 12894
cố_đô 12894
Tỵ 13583
sh 12890
Lazio 13335
Ð@@ 12888
American_@@ 12888
mũi_tên 12887
danh_xưng 12885
48% 13165
rườm_rà 12884
Quốc_dân 12882
Dương_Thị_@@ 12882
TNCS 13691
cát-xê 13518
mầu 13552
c.@@ 12877
Hama 12898
rìa 13609
ales 12876
BL@@ 12876
Hậu_duệ 12874
Club 13174
ile 12873
tỉnh_uỷ 12872
Tặng 13115
miễn_là 12871
Henry_@@ 12871
Pedro 13224
ương_@@ 12868
bas@@ 12868
Đông_Hà 12866
ate_@@ 12864
Red@@ 12858
The_Guardian 12858
điên_cuồng 12855
30/11 12854
Vic@@ 12854
hướng_nghiệp 12851
trung_tuần 12851
viên_mãn 12850
nger 12849
Hang_@@ 12849
als 12847
làm_mưa_làm_gió 12846
Hằng_@@ 12846
Sto@@ 12846
4,2 13152
Luật_Giáo_dục 12845
15/11 12883
nhạc_kịch 12844
ach 12842
giường_nằm 12841
Văn_Thanh 12840
ngầu 13188
lõm 13165
Chen 13194
giờ_phút 12835
Vinasun 12858
Scott_@@ 12834
FO@@ 12834
Trực 13819
Cường_Đô 12830
VP 12972
Rose 12976
Tiết_mục 12826
Ibra 12860
vần 13916
Dr@@ 12819
thần_dược 12817
thực_dụng 12815
Lê_Thuỵ_Hải 12815
Đông_Bắc_Bộ 12815
UBTVQH 12814
Khuyến_khích 12811
Ali_@@ 12811
52% 12860
Nẵng 30162
gởi 13339
Glo@@ 12808
Senkaku 13047
cộng_hưởng 12807
Tăng_trưởng 12807
vũ_trường 12805
RA 12829
chống_đỡ 12800
Wave 13102
Toán_học 12800
rung_chuyển 12799
fo@@ 12798
Website 12928
lao_đao 12797
UBND-@@ 12796
age_@@ 12795
Rời 12976
nhà_ăn 12793
Thục_@@ 12789
Gaddafi 12804
thạo 13735
uy_lực 12786
Hưởng 13604
380 13033
Sóng 13217
Lo 14519
UPCoM 13060
Ah@@ 12781
Nick_@@ 12779
SK 12875
bực_tức 12777
Đăng_kiểm 12776
hẻo_lánh 12772
Pseudo@@ 12770
trả_góp 12767
VPBank 13770
thuốc_men 12765
Sher@@ 12763
56@@ 12763
QUANG 12815
Thừa_@@ 12761
Viễn_Đông 12760
thô_bạo 12755
dance 12889
cai 15953
Cli@@ 12747
bản_gốc 12745
kỹ_thuật_viên 12745
hộ_vệ 12744
Giẽ 12864
Tổng_Biên_tập 12743
Haw@@ 12743
21/6 12832
dự_thầu 12738
quấy 13505
xót 13851
gào 12996
thương_thảo 12732
khô_hạn 12732
giải_nhiệt 12731
vô@@ 12730
15-20 12914
QL1A 13022
vô_danh 12726
06/@@ 12724
ĐH@@ 12723
Colo@@ 12723
cứng_nhắc 12723
Thung_lũng 12721
ple@@ 12721
ứ@@ 12719
mỹ_nữ 12714
Tiêu 15402
Lê_Văn_Lương 12712
Australia_@@ 12711
3/5 12726
cây_thuốc 12708
Thời_đại 12708
hạc 12847
Nhị_@@ 12706
PM 12738
Tôm 12848
Gia_Bảo 12702
phán_xét 12701
tù_binh 12701
ngôn_từ 12699
Cameroon 12736
Kos@@ 12698
Gran@@ 12695
binh_@@ 12694
23/8 12702
nguyên_tố 12692
chủ_nghĩa_xã_hội 12690
Lim@@ 12690
Gói 14316
gây_hấn 12688
chủ_toạ 12687
tí_hon 12687
131 13200
tái_phạm 12684
quát 14322
VH-TT-DL 12806
ath 12681
pal@@ 12680
Kr@@ 12680
Vas@@ 12679
Cải_cách 12678
bảo_mẫu 12675
2016-2017 12701
08/@@ 12674
âu_yếm 12674
Quốc_Tử_Giám 12674
Nhân_quyền 12673
Vị_@@ 12666
Báo_@@ 12664
Khám 14203
Có_điều 12663
thù 21736
_sĩ 12660
đa_phương_tiện 12656
HDBank 13432
ER 12657
Mạnh_Hùng 12653
Bản_@@ 12653
phơi_bày 12652
ghi_danh 12651
sầu 14659
Tỏi 12839
Xuất_phát 12647
196@@ 12645
sà_lan 12644
trọc 13458
của_@@ 12637
Xếp 12848
hai_mươi 12635
Messenger 12637
bàn_thảo 12633
Spar@@ 12633
Hoàng_Văn_Thụ 12631
tá 19819
hình_@@ 12629
15/10 12626
Hoả 12626
sim@@ 12626
Siêu_@@ 12624
Mèo 13097
Dạo 12939
Inf@@ 12623
nhân_thân 12623
Bắc_bộ 12621
him@@ 12619
Fulham 12618
9/10 12667
Thế_hệ 12614
trưng_cầu 12603
Ngọc_Hà 12603
bình_minh 12602
phục_dựng 12602
15/8 12918
Ước 13694
ồ@@ 12600
AI@@ 12598
VTV3 13053
Mur@@ 12591
phán_xử 12591
a_s@@ 12587
Thủ_Dầu_Một 12586
SNSD 12701
BVĐK 13125
Quang_Hiếu 12585
Tổng_LĐLĐVN 12585
để_mắt 12583
ẩy 12900
hụt_hẫng 12581
we 12592
ğ@@ 12581
ò@@ 12579
tâm_lý_học 12576
độn 15386
dành_dụm 12573
yan 12578
xíu 13069
10/11 12583
Thần_tượng 12572
Charles@@ 12571
hat-trick 12657
A2 12609
code 12676
thắng_cảnh 12568
Bắc_Triều_Tiên 12568
Chanel 12687
túm 12786
Marvel 12910
Roberto_@@ 12562
land_@@ 12561
ä@@ 12561
mia 12564
Quy_tắc 12558
_lực 12554
Camry 12713
Martin 13478
ju 12553
máy_vi_tính 12552
trụ_trì 12551
Hôn_nhân 12548
hiếu_học 12547
Full_HD 12547
Liêu_Ninh 12547
tiêu_xài 12546
Nguyễn_Hoàng 12545
hạn_hẹp 12545
thơ_ấu 12544
lợi_hại 12543
poster 12802
Athens 12709
Harry_Potter 12542
cơ_chế_thị_trường 12541
ngất_ngưởng 12541
ống_@@ 12540
Đài_Bắc 12539
Miss_Universe 12537
nhẹ_nhõm 12537
6/2015 12536
Tờ_trình 12533
hướng_dương 12532
nỗi_niềm 12532
hóm_hỉnh 12530
Paraguay 12645
Hội_Chữ_thập_đỏ 12529
thiết 84268
HĐTV 12966
Lam@@ 12526
nguyên_@@ 12524
Love_@@ 12519
ệ@@ 12517
Hoá_chất 12514
22/11 12525
Avengers 12765
Jos@@ 12510
20/4 12550
phế 14299
vặn 12980
5000 12736
nhà_thuốc 12506
Ngủ 12770
Kum@@ 12505
tặng_thưởng 12504
sơ_sài 12504
Al-Qaeda 12502
nhà_kinh_tế 12502
Cen@@ 12499
Arena 12744
Ron@@ 12498
15/7 13029
đá_vôi 12497
y_bác_sĩ 12496
dầu_mỡ 12495
mẩn 13008
2.8@@ 12494
Vĩ 12760
20/7 13180
Học_tập 12489
98@@ 12489
Leo 12882
7/2015 12493
đại_lục 12487
bủa_vây 12486
buồn_ngủ 12485
chuyển_mình 12485
lấn_át 12484
Pet@@ 12484
136 12699
sụn 12805
estrogen 12756
5/6 12651
27/7 12573
Abu_@@ 12476
TTTM 12524
1,5% 12734
đô@@ 12470
lẫn_lộn 12465
Đỗ 21837
Elateridae 12459
hack 12944
đau_xót 12459
Frankfurt 12485
Cò 12707
cul@@ 12456
trong_trẻo 12454
4,8 12963
Hà_Tiên 12453
Thượng_uý 12451
Rock 12733
bài_trí 12446
34% 12551
nội_quy 12443
độ@@ 12441
Bl@@ 12439
adi 12437
Cơ_thể 12436
3/NĐ-CP 12436
ĐTCK-online 12436
Xuân_Thành 12436
tính_tình 12435
vật_phẩm 12434
ả_@@ 12432
thúc 41573
1/12 12435
ỏ 15880
nghịch_ngợm 12429
Đạt_@@ 12424
Jam@@ 12423
mổ_xẻ 12423
Hun_Sen 12423
Post 13184
Thời_hạn 12422
bất_bình_đẳng 12421
Model 12907
chống_phá 12420
hành_lang_pháp_lý 12418
collagen 12610
47% 12458
gián 17300
tàu_đổ_bộ 12417
AL@@ 12415
sự_tích 12415
Blue_@@ 12414
tuyên_bố_chung 12414
nan_giải 12413
zo 12411
đong 13037
kế_vị 12410
Nguyễn_Anh_@@ 12410
máy_phát_điện 12409
up@@ 12409
sân_thượng 12407
una 12407
_Man@@ 12406
Phnom_Penh 12405
GP@@ 12405
So_sánh 12404
nus 12403
đệ_trình 12403
Edition 12669
Macau 12511
hết_mực 12400
liên_đoàn 12398
Ngài_@@ 12398
T-90 12545
phiên_dịch 12395
yi 12393
Cham@@ 12392
Y_khoa 12391
tận_cùng 12385
var@@ 12381
TTTT 12570
thoát_thân 12380
sson 12376
trực_tràng 12376
nước_bọt 12375
5,6 12454
Kilo 12381
13/11 12373
hình_tròn 12373
TU 12386
đạo_lý 12370
doanh 136573
Weibo 12798
yếm 12708
Đông_Sơn 12367
rùng_mình 12365
ạn_@@ 12365
tinh_thể 12365
Azerbaijan 12509
Su-24 12447
chinh_chiến 12361
ew@@ 12360
133 12534
Arg@@ 12359
Nguyễn_Việt_@@ 12357
cách_điệu 12357
Juli@@ 12356
TNT 12401
Khương_@@ 12351
Vệ 16422
Rock@@ 12349
Alaska 12411
ngà_voi 12348
1/1/2018 12443
phân_đoạn 12347
quý_mến 12347
báo_@@ 12347
137 12708
Lính 12565
31/10 12341
ON 12409
ati 12340
váy_áo 12339
ngán_ngẩm 12338
[...]
